{
  "version": "1.0",
  "truncation": null,
  "padding": null,
  "added_tokens": [
    {
      "id": 0,
      "content": "<s>",
      "single_word": false,
      "lstrip": false,
      "rstrip": false,
      "normalized": false,
      "special": true
    },
    {
      "id": 1,
      "content": "<pad>",
      "single_word": false,
      "lstrip": false,
      "rstrip": false,
      "normalized": false,
      "special": true
    },
    {
      "id": 2,
      "content": "</s>",
      "single_word": false,
      "lstrip": false,
      "rstrip": false,
      "normalized": false,
      "special": true
    },
    {
      "id": 3,
      "content": "<unk>",
      "single_word": false,
      "lstrip": false,
      "rstrip": false,
      "normalized": false,
      "special": true
    },
    {
      "id": 15001,
      "content": "<mask>",
      "single_word": false,
      "lstrip": false,
      "rstrip": false,
      "normalized": false,
      "special": true
    }
  ],
  "normalizer": {
    "type": "Sequence",
    "normalizers": [
      {
        "type": "Strip",
        "strip_left": false,
        "strip_right": true
      },
      {
        "type": "Replace",
        "pattern": {
          "String": " {2,}"
        },
        "content": "▁"
      }
    ]
  },
  "pre_tokenizer": {
    "type": "Sequence",
    "pretokenizers": [
      {
        "type": "WhitespaceSplit"
      },
      {
        "type": "Metaspace",
        "replacement": "▁",
        "prepend_scheme": "always",
        "split": true
      }
    ]
  },
  "post_processor": {
    "type": "TemplateProcessing",
    "single": [
      {
        "SpecialToken": {
          "id": "<s>",
          "type_id": 0
        }
      },
      {
        "Sequence": {
          "id": "A",
          "type_id": 0
        }
      },
      {
        "SpecialToken": {
          "id": "</s>",
          "type_id": 0
        }
      }
    ],
    "pair": [
      {
        "SpecialToken": {
          "id": "<s>",
          "type_id": 0
        }
      },
      {
        "Sequence": {
          "id": "A",
          "type_id": 0
        }
      },
      {
        "SpecialToken": {
          "id": "</s>",
          "type_id": 0
        }
      },
      {
        "Sequence": {
          "id": "B",
          "type_id": 0
        }
      },
      {
        "SpecialToken": {
          "id": "</s>",
          "type_id": 0
        }
      }
    ],
    "special_tokens": {
      "</s>": {
        "id": "</s>",
        "ids": [
          2
        ],
        "tokens": [
          "</s>"
        ]
      },
      "<s>": {
        "id": "<s>",
        "ids": [
          0
        ],
        "tokens": [
          "<s>"
        ]
      }
    }
  },
  "decoder": {
    "type": "Metaspace",
    "replacement": "▁",
    "prepend_scheme": "always",
    "split": true
  },
  "model": {
    "type": "Unigram",
    "unk_id": 3,
    "vocab": [
      [
        "<s>",
        0.0
      ],
      [
        "<pad>",
        0.0
      ],
      [
        "</s>",
        0.0
      ],
      [
        "<unk>",
        0.0
      ],
      [
        "ng",
        -0.0
      ],
      [
        "▁c",
        -1.0
      ],
      [
        "▁t",
        -2.0
      ],
      [
        "nh",
        -3.0
      ],
      [
        "▁đ",
        -4.0
      ],
      [
        "▁m",
        -5.0
      ],
      [
        "▁l",
        -6.0
      ],
      [
        "▁ch",
        -7.0
      ],
      [
        "▁th",
        -8.0
      ],
      [
        "▁h",
        -9.0
      ],
      [
        "▁b",
        -10.0
      ],
      [
        "▁v",
        -11.0
      ],
      [
        "▁n",
        -12.0
      ],
      [
        "▁k",
        -13.0
      ],
      [
        "▁nh",
        -14.0
      ],
      [
        "▁s",
        -15.0
      ],
      [
        "▁g",
        -16.0
      ],
      [
        "▁T",
        -17.0
      ],
      [
        "▁d",
        -18.0
      ],
      [
        "▁ng",
        -19.0
      ],
      [
        "▁r",
        -20.0
      ],
      [
        "▁kh",
        -21.0
      ],
      [
        "▁tr",
        -22.0
      ],
      [
        "▁C",
        -23.0
      ],
      [
        "▁N",
        -24.0
      ],
      [
        "▁là",
        -25.0
      ],
      [
        "▁p",
        -26.0
      ],
      [
        "ên",
        -27.0
      ],
      [
        "))",
        -28.0
      ],
      [
        "▁gi",
        -29.0
      ],
      [
        "▁x",
        -30.0
      ],
      [
        "▁ph",
        -31.0
      ],
      [
        "▁q",
        -32.0
      ],
      [
        "▁qu",
        -33.0
      ],
      [
        "ông",
        -34.0
      ],
      [
        "ình",
        -35.0
      ],
      [
        "▁a",
        -36.0
      ],
      [
        "▁có",
        -37.0
      ],
      [
        "▁H",
        -38.0
      ],
      [
        "uy",
        -39.0
      ],
      [
        "ao",
        -40.0
      ],
      [
        "▁nà",
        -41.0
      ],
      [
        "ay",
        -42.0
      ],
      [
        "▁M",
        -43.0
      ],
      [
        "▁đi",
        -44.0
      ],
      [
        "ấy",
        -45.0
      ],
      [
        "▁mà",
        -46.0
      ],
      [
        "ất",
        -47.0
      ],
      [
        "ời",
        -48.0
      ],
      [
        "▁e",
        -49.0
      ],
      [
        "ới",
        -50.0
      ],
      [
        "▁:",
        -51.0
      ],
      [
        "▁Th",
        -52.0
      ],
      [
        "iế",
        -53.0
      ],
      [
        "▁cá",
        -54.0
      ],
      [
        "on",
        -55.0
      ],
      [
        "ch",
        -56.0
      ],
      [
        "▁thì",
        -57.0
      ],
      [
        "▁và",
        -58.0
      ],
      [
        "ại",
        -59.0
      ],
      [
        "iệ",
        -60.0
      ],
      [
        "▁như",
        -61.0
      ],
      [
        "▁Đ",
        -62.0
      ],
      [
        "an",
        -63.0
      ],
      [
        "ong",
        -64.0
      ],
      [
        "ượ",
        -65.0
      ],
      [
        "▁Ng",
        -66.0
      ],
      [
        "▁cho",
        -67.0
      ],
      [
        "▁Ch",
        -68.0
      ],
      [
        "▁L",
        -69.0
      ],
      [
        "ơi",
        -70.0
      ],
      [
        "▁này",
        -71.0
      ],
      [
        "ần",
        -72.0
      ],
      [
        "▁không",
        -73.0
      ],
      [
        "ôi",
        -74.0
      ],
      [
        "àng",
        -75.0
      ],
      [
        "ồi",
        -76.0
      ],
      [
        "inh",
        -77.0
      ],
      [
        "ai",
        -78.0
      ],
      [
        "▁mình",
        -79.0
      ],
      [
        "▁B",
        -80.0
      ],
      [
        "iề",
        -81.0
      ],
      [
        "ang",
        -82.0
      ],
      [
        "▁nha",
        -83.0
      ],
      [
        "▁nó",
        -84.0
      ],
      [
        "▁V",
        -85.0
      ],
      [
        "ạn",
        -86.0
      ],
      [
        "ân",
        -87.0
      ],
      [
        "ười",
        -88.0
      ],
      [
        "ũng",
        -89.0
      ],
      [
        "▁S",
        -90.0
      ],
      [
        "▁em",
        -91.0
      ],
      [
        "ài",
        -92.0
      ],
      [
        "am",
        -93.0
      ],
      [
        "ủa",
        -94.0
      ],
      [
        "ải",
        -95.0
      ],
      [
        "▁ko",
        -96.0
      ],
      [
        "âu",
        -97.0
      ],
      [
        "in",
        -98.0
      ],
      [
        "ược",
        -99.0
      ],
      [
        "▁của",
        -100.0
      ],
      [
        "▁cũng",
        -101.0
      ],
      [
        "▁mu",
        -102.0
      ],
      [
        "ươ",
        -103.0
      ],
      [
        "▁ngh",
        -104.0
      ],
      [
        "▁K",
        -105.0
      ],
      [
        "▁rồi",
        -106.0
      ],
      [
        "▁được",
        -107.0
      ],
      [
        "▁chị",
        -108.0
      ],
      [
        "ương",
        -109.0
      ],
      [
        "en",
        -110.0
      ],
      [
        "▁quá",
        -111.0
      ],
      [
        "▁Tr",
        -112.0
      ],
      [
        "▁lu",
        -113.0
      ],
      [
        "ôn",
        -114.0
      ],
      [
        "òn",
        -115.0
      ],
      [
        "▁bạn",
        -116.0
      ],
      [
        "▁người",
        -117.0
      ],
      [
        "ết",
        -118.0
      ],
      [
        "▁:))",
        -119.0
      ],
      [
        "ơn",
        -120.0
      ],
      [
        "ọc",
        -121.0
      ],
      [
        "▁P",
        -122.0
      ],
      [
        "▁con",
        -123.0
      ],
      [
        "▁D",
        -124.0
      ],
      [
        "▁làm",
        -125.0
      ],
      [
        "▁lại",
        -126.0
      ],
      [
        "▁cái",
        -127.0
      ],
      [
        "▁hàng",
        -128.0
      ],
      [
        "▁cả",
        -129.0
      ],
      [
        "▁A",
        -130.0
      ],
      [
        "êu",
        -131.0
      ],
      [
        "▁đó",
        -132.0
      ],
      [
        "ưa",
        -133.0
      ],
      [
        "ận",
        -134.0
      ],
      [
        "oi",
        -135.0
      ],
      [
        "▁.",
        -136.0
      ],
      [
        "▁ra",
        -137.0
      ],
      [
        "ướ",
        -138.0
      ],
      [
        "▁gì",
        -139.0
      ],
      [
        "▁G",
        -140.0
      ],
      [
        "ây",
        -141.0
      ],
      [
        "▁Nguy",
        -142.0
      ],
      [
        "▁Nh",
        -143.0
      ],
      [
        "▁còn",
        -144.0
      ],
      [
        "ật",
        -145.0
      ],
      [
        "úc",
        -146.0
      ],
      [
        "▁để",
        -147.0
      ],
      [
        "iết",
        -148.0
      ],
      [
        "ăn",
        -149.0
      ],
      [
        "▁với",
        -150.0
      ],
      [
        "▁ạ",
        -151.0
      ],
      [
        "▁nào",
        -152.0
      ],
      [
        "em",
        -153.0
      ],
      [
        "ác",
        -154.0
      ],
      [
        "ùng",
        -155.0
      ],
      [
        "ung",
        -156.0
      ],
      [
        "iên",
        -157.0
      ],
      [
        "▁anh",
        -158.0
      ],
      [
        "▁Ph",
        -159.0
      ],
      [
        "ống",
        -160.0
      ],
      [
        "ẹp",
        -161.0
      ],
      [
        "▁luôn",
        -162.0
      ],
      [
        "iều",
        -163.0
      ],
      [
        "▁thấy",
        -164.0
      ],
      [
        "ản",
        -165.0
      ],
      [
        "▁y",
        -166.0
      ],
      [
        "▁,",
        -167.0
      ],
      [
        "au",
        -168.0
      ],
      [
        "ễn",
        -169.0
      ],
      [
        "ữa",
        -170.0
      ],
      [
        "anh",
        -171.0
      ],
      [
        "▁phải",
        -172.0
      ],
      [
        "▁nhưng",
        -173.0
      ],
      [
        "ắm",
        -174.0
      ],
      [
        "ậy",
        -175.0
      ],
      [
        "▁rất",
        -176.0
      ],
      [
        "ắc",
        -177.0
      ],
      [
        "▁nên",
        -178.0
      ],
      [
        "▁mua",
        -179.0
      ],
      [
        "ui",
        -180.0
      ],
      [
        "ốt",
        -181.0
      ],
      [
        "op",
        -182.0
      ],
      [
        "..",
        -183.0
      ],
      [
        "▁mới",
        -184.0
      ],
      [
        "▁đẹp",
        -185.0
      ],
      [
        "▁ơi",
        -186.0
      ],
      [
        "ầu",
        -187.0
      ],
      [
        "ước",
        -188.0
      ],
      [
        "ày",
        -189.0
      ],
      [
        "▁hay",
        -190.0
      ],
      [
        "ến",
        -191.0
      ],
      [
        "ườ",
        -192.0
      ],
      [
        "▁đã",
        -193.0
      ],
      [
        "▁ở",
        -194.0
      ],
      [
        "▁bị",
        -195.0
      ],
      [
        "iể",
        -196.0
      ],
      [
        "àn",
        -197.0
      ],
      [
        "ường",
        -198.0
      ],
      [
        "▁sao",
        -199.0
      ],
      [
        "▁ho",
        -200.0
      ],
      [
        "ái",
        -201.0
      ],
      [
        "▁về",
        -202.0
      ],
      [
        "áng",
        -203.0
      ],
      [
        "úng",
        -204.0
      ],
      [
        "iền",
        -205.0
      ],
      [
        "ích",
        -206.0
      ],
      [
        "▁thế",
        -207.0
      ],
      [
        "▁Nguyễn",
        -208.0
      ],
      [
        "ẫn",
        -209.0
      ],
      [
        "ột",
        -210.0
      ],
      [
        "▁nhiều",
        -211.0
      ],
      [
        "▁vậy",
        -212.0
      ],
      [
        "ảo",
        -213.0
      ],
      [
        "▁đâu",
        -214.0
      ],
      [
        "▁đc",
        -215.0
      ],
      [
        "ành",
        -216.0
      ],
      [
        "▁thôi",
        -217.0
      ],
      [
        "▁lắm",
        -218.0
      ],
      [
        "▁sh",
        -219.0
      ],
      [
        "▁giá",
        -220.0
      ],
      [
        "▁biết",
        -221.0
      ],
      [
        "▁nhà",
        -222.0
      ],
      [
        "▁chứ",
        -223.0
      ],
      [
        "▁nhé",
        -224.0
      ],
      [
        "▁chỉ",
        -225.0
      ],
      [
        "▁=",
        -226.0
      ],
      [
        "▁hơn",
        -227.0
      ],
      [
        "▁chưa",
        -228.0
      ],
      [
        "▁nói",
        -229.0
      ],
      [
        "▁nữa",
        -230.0
      ],
      [
        "▁Q",
        -231.0
      ],
      [
        "▁các",
        -232.0
      ],
      [
        "▁sẽ",
        -233.0
      ],
      [
        "át",
        -234.0
      ],
      [
        "▁vào",
        -235.0
      ],
      [
        "ăm",
        -236.0
      ],
      [
        "▁trong",
        -237.0
      ],
      [
        "ối",
        -238.0
      ],
      [
        "▁o",
        -239.0
      ],
      [
        "ặt",
        -240.0
      ],
      [
        "▁lên",
        -241.0
      ],
      [
        "▁ăn",
        -242.0
      ],
      [
        "▁á",
        -243.0
      ],
      [
        "▁khi",
        -244.0
      ],
      [
        "ằng",
        -245.0
      ],
      [
        "âm",
        -246.0
      ],
      [
        "ăng",
        -247.0
      ],
      [
        "▁Gi",
        -248.0
      ],
      [
        "▁5",
        -249.0
      ],
      [
        "eo",
        -250.0
      ],
      [
        "▁từ",
        -251.0
      ],
      [
        "▁nhanh",
        -252.0
      ],
      [
        "ồng",
        -253.0
      ],
      [
        "ốn",
        -254.0
      ],
      [
        "▁Kh",
        -255.0
      ],
      [
        "ii",
        -256.0
      ],
      [
        "ính",
        -257.0
      ],
      [
        "ánh",
        -258.0
      ],
      [
        "iện",
        -259.0
      ],
      [
        "▁mấy",
        -260.0
      ],
      [
        "▁ai",
        -261.0
      ],
      [
        "im",
        -262.0
      ],
      [
        "er",
        -263.0
      ],
      [
        "▁xem",
        -264.0
      ],
      [
        "▁=))",
        -265.0
      ],
      [
        "▁to",
        -266.0
      ],
      [
        "▁đến",
        -267.0
      ],
      [
        "▁học",
        -268.0
      ],
      [
        "▁ngày",
        -269.0
      ],
      [
        "ắt",
        -270.0
      ],
      [
        "ực",
        -271.0
      ],
      [
        "▁chi",
        -272.0
      ],
      [
        "ẩm",
        -273.0
      ],
      [
        "▁vẫn",
        -274.0
      ],
      [
        "▁tốt",
        -275.0
      ],
      [
        "án",
        -276.0
      ],
      [
        "▁f",
        -277.0
      ],
      [
        "iệt",
        -278.0
      ],
      [
        "kk",
        -279.0
      ],
      [
        "êm",
        -280.0
      ],
      [
        "▁mẹ",
        -281.0
      ],
      [
        "▁cu",
        -282.0
      ],
      [
        "iểu",
        -283.0
      ],
      [
        "▁một",
        -284.0
      ],
      [
        "ức",
        -285.0
      ],
      [
        "▁E",
        -286.0
      ],
      [
        "▁Qu",
        -287.0
      ],
      [
        "ổi",
        -288.0
      ],
      [
        "▁X",
        -289.0
      ],
      [
        "▁hết",
        -290.0
      ],
      [
        "òng",
        -291.0
      ],
      [
        "▁tôi",
        -292.0
      ],
      [
        "▁qua",
        -293.0
      ],
      [
        "▁cứ",
        -294.0
      ],
      [
        "ội",
        -295.0
      ],
      [
        "ìn",
        -296.0
      ],
      [
        "ọi",
        -297.0
      ],
      [
        "▁tiền",
        -298.0
      ],
      [
        "▁1",
        -299.0
      ],
      [
        "ầy",
        -300.0
      ],
      [
        "▁yêu",
        -301.0
      ],
      [
        "▁giao",
        -302.0
      ],
      [
        "ắn",
        -303.0
      ],
      [
        "▁shop",
        -304.0
      ],
      [
        "▁ta",
        -305.0
      ],
      [
        "▁lo",
        -306.0
      ],
      [
        "▁nhận",
        -307.0
      ],
      [
        "▁tiế",
        -308.0
      ],
      [
        "ói",
        -309.0
      ],
      [
        "ỏi",
        -310.0
      ],
      [
        "▁phẩm",
        -311.0
      ],
      [
        "áy",
        -312.0
      ],
      [
        "▁-",
        -313.0
      ],
      [
        "▁sau",
        -314.0
      ],
      [
        "▁đầu",
        -315.0
      ],
      [
        "ừa",
        -316.0
      ],
      [
        "▁giờ",
        -317.0
      ],
      [
        "ưng",
        -318.0
      ],
      [
        "▁thích",
        -319.0
      ],
      [
        "uyệ",
        -320.0
      ],
      [
        "▁lần",
        -321.0
      ],
      [
        "ượng",
        -322.0
      ],
      [
        "▁vì",
        -323.0
      ],
      [
        "ừng",
        -324.0
      ],
      [
        "ỗi",
        -325.0
      ],
      [
        "ững",
        -326.0
      ],
      [
        "ạnh",
        -327.0
      ],
      [
        "ập",
        -328.0
      ],
      [
        "▁Anh",
        -329.0
      ],
      [
        "▁chơi",
        -330.0
      ],
      [
        "▁năm",
        -331.0
      ],
      [
        "▁đây",
        -332.0
      ],
      [
        "▁Ho",
        -333.0
      ],
      [
        "▁thể",
        -334.0
      ],
      [
        "▁i",
        -335.0
      ],
      [
        "▁độ",
        -336.0
      ],
      [
        "▁thu",
        -337.0
      ],
      [
        "ục",
        -338.0
      ],
      [
        "▁😂",
        -339.0
      ],
      [
        "ào",
        -340.0
      ],
      [
        "▁bao",
        -341.0
      ],
      [
        "▁thật",
        -342.0
      ],
      [
        "ặc",
        -343.0
      ],
      [
        "▁9",
        -344.0
      ],
      [
        "▁4",
        -345.0
      ],
      [
        "▁hình",
        -346.0
      ],
      [
        "▁nghe",
        -347.0
      ],
      [
        "▁cảm",
        -348.0
      ],
      [
        "ie",
        -349.0
      ],
      [
        "▁dùng",
        -350.0
      ],
      [
        "at",
        -351.0
      ],
      [
        "▁chắc",
        -352.0
      ],
      [
        "▁ông",
        -353.0
      ],
      [
        "▁R",
        -354.0
      ],
      [
        "iêu",
        -355.0
      ],
      [
        "▁muốn",
        -356.0
      ],
      [
        "▁đúng",
        -357.0
      ],
      [
        "▁tu",
        -358.0
      ],
      [
        "▁à",
        -359.0
      ],
      [
        "▁những",
        -360.0
      ],
      [
        "▁nay",
        -361.0
      ],
      [
        "▁co",
        -362.0
      ],
      [
        "ảnh",
        -363.0
      ],
      [
        "▁chất",
        -364.0
      ],
      [
        "??",
        -365.0
      ],
      [
        "▁gh",
        -366.0
      ],
      [
        "ar",
        -367.0
      ],
      [
        "ốc",
        -368.0
      ],
      [
        "🤣🤣",
        -369.0
      ],
      [
        "ụng",
        -370.0
      ],
      [
        "ẩn",
        -371.0
      ],
      [
        "▁bài",
        -372.0
      ],
      [
        "▁:)))",
        -373.0
      ],
      [
        "ấu",
        -374.0
      ],
      [
        "▁Có",
        -375.0
      ],
      [
        "aa",
        -376.0
      ],
      [
        "▁đang",
        -377.0
      ],
      [
        "ọng",
        -378.0
      ],
      [
        "óc",
        -379.0
      ],
      [
        "ầm",
        -380.0
      ],
      [
        "ếu",
        -381.0
      ],
      [
        "ồn",
        -382.0
      ],
      [
        "▁ok",
        -383.0
      ],
      [
        "ôm",
        -384.0
      ],
      [
        "▁sản",
        -385.0
      ],
      [
        "▁khác",
        -386.0
      ],
      [
        "ách",
        -387.0
      ],
      [
        "▁z",
        -388.0
      ],
      [
        "▁công",
        -389.0
      ],
      [
        "▁ý",
        -390.0
      ],
      [
        "al",
        -391.0
      ],
      [
        "ưở",
        -392.0
      ],
      [
        "▁nhất",
        -393.0
      ],
      [
        "▁bảo",
        -394.0
      ],
      [
        "▁nhìn",
        -395.0
      ],
      [
        "▁nè",
        -396.0
      ],
      [
        "▁lúc",
        -397.0
      ],
      [
        "ắng",
        -398.0
      ],
      [
        "▁kho",
        -399.0
      ],
      [
        "▁xe",
        -400.0
      ],
      [
        "ãi",
        -401.0
      ],
      [
        "ạc",
        -402.0
      ],
      [
        "ịch",
        -403.0
      ],
      [
        "ặng",
        -404.0
      ],
      [
        "ều",
        -405.0
      ],
      [
        "ưởng",
        -406.0
      ],
      [
        "uyên",
        -407.0
      ],
      [
        "▁sự",
        -408.0
      ],
      [
        "ọn",
        -409.0
      ],
      [
        "▁lượng",
        -410.0
      ],
      [
        "▁trên",
        -411.0
      ],
      [
        "▁hộ",
        -412.0
      ],
      [
        "ee",
        -413.0
      ],
      [
        "ền",
        -414.0
      ],
      [
        "▁6",
        -415.0
      ],
      [
        "▁xu",
        -416.0
      ],
      [
        "▁xong",
        -417.0
      ],
      [
        "▁tình",
        -418.0
      ],
      [
        "ik",
        -419.0
      ],
      [
        "▁thương",
        -420.0
      ],
      [
        "út",
        -421.0
      ],
      [
        "óng",
        -422.0
      ],
      [
        "▁vừa",
        -423.0
      ],
      [
        "ít",
        -424.0
      ],
      [
        "▁chu",
        -425.0
      ],
      [
        "▁nghĩ",
        -426.0
      ],
      [
        "ấn",
        -427.0
      ],
      [
        "▁hơi",
        -428.0
      ],
      [
        "▁nước",
        -429.0
      ],
      [
        "▁bu",
        -430.0
      ],
      [
        "▁bé",
        -431.0
      ],
      [
        "▁thành",
        -432.0
      ],
      [
        "ac",
        -433.0
      ],
      [
        "ửa",
        -434.0
      ],
      [
        "▁đấy",
        -435.0
      ],
      [
        "▁cô",
        -436.0
      ],
      [
        "áo",
        -437.0
      ],
      [
        "iệu",
        -438.0
      ],
      [
        "▁xin",
        -439.0
      ],
      [
        "▁ảnh",
        -440.0
      ],
      [
        "▁ngo",
        -441.0
      ],
      [
        "▁di",
        -442.0
      ],
      [
        "▁nhau",
        -443.0
      ],
      [
        "ạy",
        -444.0
      ],
      [
        "▁tay",
        -445.0
      ],
      [
        "▁ơn",
        -446.0
      ],
      [
        "ảm",
        -447.0
      ],
      [
        "▁do",
        -448.0
      ],
      [
        "▁tự",
        -449.0
      ],
      [
        "ạt",
        -450.0
      ],
      [
        "oo",
        -451.0
      ],
      [
        "▁7",
        -452.0
      ],
      [
        "ia",
        -453.0
      ],
      [
        "ạo",
        -454.0
      ],
      [
        "▁8",
        -455.0
      ],
      [
        "▁cần",
        -456.0
      ],
      [
        "▁u",
        -457.0
      ],
      [
        "▁gói",
        -458.0
      ],
      [
        "▁dễ",
        -459.0
      ],
      [
        "▁j",
        -460.0
      ],
      [
        "iến",
        -461.0
      ],
      [
        "▁2",
        -462.0
      ],
      [
        "ấp",
        -463.0
      ],
      [
        "ộc",
        -464.0
      ],
      [
        "▁dụng",
        -465.0
      ],
      [
        "▁Mình",
        -466.0
      ],
      [
        "▁thêm",
        -467.0
      ],
      [
        "▁mặt",
        -468.0
      ],
      [
        "▁cơ",
        -469.0
      ],
      [
        "uyện",
        -470.0
      ],
      [
        "hh",
        -471.0
      ],
      [
        "▁tới",
        -472.0
      ],
      [
        "▁bên",
        -473.0
      ],
      [
        "▁máy",
        -474.0
      ],
      [
        "ạm",
        -475.0
      ],
      [
        "▁trước",
        -476.0
      ],
      [
        "▁ấy",
        -477.0
      ],
      [
        "▁dc",
        -478.0
      ],
      [
        "▁Chị",
        -479.0
      ],
      [
        "▁màu",
        -480.0
      ],
      [
        "▁Em",
        -481.0
      ],
      [
        "▁sinh",
        -482.0
      ],
      [
        "▁đủ",
        -483.0
      ],
      [
        "tt",
        -484.0
      ],
      [
        "▁vui",
        -485.0
      ],
      [
        "ll",
        -486.0
      ],
      [
        "ợp",
        -487.0
      ],
      [
        "ứng",
        -488.0
      ],
      [
        "▁w",
        -489.0
      ],
      [
        "▁tâm",
        -490.0
      ],
      [
        "pp",
        -491.0
      ],
      [
        "▁lấy",
        -492.0
      ],
      [
        "st",
        -493.0
      ],
      [
        "▁Trần",
        -494.0
      ],
      [
        "▁tao",
        -495.0
      ],
      [
        "ửi",
        -496.0
      ],
      [
        "▁vô",
        -497.0
      ],
      [
        "▁hợp",
        -498.0
      ],
      [
        "▁cùng",
        -499.0
      ],
      [
        "▁tin",
        -500.0
      ],
      [
        "▁thi",
        -501.0
      ],
      [
        "éo",
        -502.0
      ],
      [
        "▁an",
        -503.0
      ],
      [
        "ứa",
        -504.0
      ],
      [
        "▁Y",
        -505.0
      ],
      [
        "▁lòng",
        -506.0
      ],
      [
        "ùi",
        -507.0
      ],
      [
        "▁lâu",
        -508.0
      ],
      [
        "▁lớ",
        -509.0
      ],
      [
        "▁mọi",
        -510.0
      ],
      [
        "▁tui",
        -511.0
      ],
      [
        "▁gia",
        -512.0
      ],
      [
        "▁đóng",
        -513.0
      ],
      [
        "▁đị",
        -514.0
      ],
      [
        "))))",
        -515.0
      ],
      [
        "▁số",
        -516.0
      ],
      [
        "▁Ngọc",
        -517.0
      ],
      [
        "▁mất",
        -518.0
      ],
      [
        "((",
        -519.0
      ],
      [
        "▁Minh",
        -520.0
      ],
      [
        "ah",
        -521.0
      ],
      [
        "▁quan",
        -522.0
      ],
      [
        "▁theo",
        -523.0
      ],
      [
        "▁ổ",
        -524.0
      ],
      [
        "▁vi",
        -525.0
      ],
      [
        "ua",
        -526.0
      ],
      [
        "nn",
        -527.0
      ],
      [
        "▁bà",
        -528.0
      ],
      [
        "ấm",
        -529.0
      ],
      [
        "ặp",
        -530.0
      ],
      [
        "▁tho",
        -531.0
      ],
      [
        "▁hỏi",
        -532.0
      ],
      [
        "ame",
        -533.0
      ],
      [
        "▁(",
        -534.0
      ],
      [
        "▁vs",
        -535.0
      ],
      [
        "▁giống",
        -536.0
      ],
      [
        "▁đánh",
        -537.0
      ],
      [
        "iệc",
        -538.0
      ],
      [
        "▁thời",
        -539.0
      ],
      [
        "hi",
        -540.0
      ],
      [
        "▁tính",
        -541.0
      ],
      [
        "▁xinh",
        -542.0
      ],
      [
        "ve",
        -543.0
      ],
      [
        "▁Nam",
        -544.0
      ],
      [
        "▁toàn",
        -545.0
      ],
      [
        "▁nhớ",
        -546.0
      ],
      [
        "▁gái",
        -547.0
      ],
      [
        "▁khá",
        -548.0
      ],
      [
        "ảng",
        -549.0
      ],
      [
        "▁bộ",
        -550.0
      ],
      [
        "▁cao",
        -551.0
      ],
      [
        "▁Thanh",
        -552.0
      ],
      [
        "ủng",
        -553.0
      ],
      [
        "▁Thu",
        -554.0
      ],
      [
        "▁cách",
        -555.0
      ],
      [
        "▁đặt",
        -556.0
      ],
      [
        "▁thân",
        -557.0
      ],
      [
        "▁la",
        -558.0
      ],
      [
        "▁nhỉ",
        -559.0
      ],
      [
        "▁ma",
        -560.0
      ],
      [
        "▁nhân",
        -561.0
      ],
      [
        "▁Nguyen",
        -562.0
      ],
      [
        "▁bằng",
        -563.0
      ],
      [
        "▁ad",
        -564.0
      ],
      [
        "▁kiểu",
        -565.0
      ],
      [
        "▁tại",
        -566.0
      ],
      [
        "▁Thị",
        -567.0
      ],
      [
        "▁may",
        -568.0
      ],
      [
        "oc",
        -569.0
      ],
      [
        "et",
        -570.0
      ],
      [
        "▁sống",
        -571.0
      ],
      [
        "▁Lê",
        -572.0
      ],
      [
        "▁sợ",
        -573.0
      ],
      [
        "ắp",
        -574.0
      ],
      [
        "▁bản",
        -575.0
      ],
      [
        "▁việc",
        -576.0
      ],
      [
        "▁bình",
        -577.0
      ],
      [
        "▁da",
        -578.0
      ],
      [
        "▁hiểu",
        -579.0
      ],
      [
        "▁thằng",
        -580.0
      ],
      [
        "ét",
        -581.0
      ],
      [
        "▁viên",
        -582.0
      ],
      [
        "▁coi",
        -583.0
      ],
      [
        "or",
        -584.0
      ],
      [
        "😂😂",
        -585.0
      ],
      [
        "▁O",
        -586.0
      ],
      [
        "▁đồ",
        -587.0
      ],
      [
        "▁kì",
        -588.0
      ],
      [
        "▁trai",
        -589.0
      ],
      [
        "▁thứ",
        -590.0
      ],
      [
        "iếu",
        -591.0
      ],
      [
        "▁hôm",
        -592.0
      ],
      [
        "▁thầy",
        -593.0
      ],
      [
        "▁nhỏ",
        -594.0
      ],
      [
        "▁đọc",
        -595.0
      ],
      [
        "▁bán",
        -596.0
      ],
      [
        "▁đường",
        -597.0
      ],
      [
        "▁mong",
        -598.0
      ],
      [
        "▁họ",
        -599.0
      ],
      [
        "tr",
        -600.0
      ],
      [
        "ic",
        -601.0
      ],
      [
        "om",
        -602.0
      ],
      [
        "ou",
        -603.0
      ],
      [
        "▁Hoàng",
        -604.0
      ],
      [
        "▁tiếp",
        -605.0
      ],
      [
        "ậu",
        -606.0
      ],
      [
        "▁chính",
        -607.0
      ],
      [
        "▁🤣",
        -608.0
      ],
      [
        "▁tiếng",
        -609.0
      ],
      [
        "▁Linh",
        -610.0
      ],
      [
        "▁mang",
        -611.0
      ],
      [
        "▁đáng",
        -612.0
      ],
      [
        "▁chung",
        -613.0
      ],
      [
        "▁động",
        -614.0
      ],
      [
        "▁bố",
        -615.0
      ],
      [
        "▁khó",
        -616.0
      ],
      [
        "▁:)",
        -617.0
      ],
      [
        "▁ba",
        -618.0
      ],
      [
        "áu",
        -619.0
      ],
      [
        "▁ngon",
        -620.0
      ],
      [
        "▁mày",
        -621.0
      ],
      [
        "▁đồng",
        -622.0
      ],
      [
        "ám",
        -623.0
      ],
      [
        "▁chuyện",
        -624.0
      ],
      [
        "▁game",
        -625.0
      ],
      [
        "iệm",
        -626.0
      ],
      [
        "▁trường",
        -627.0
      ],
      [
        "▁mặc",
        -628.0
      ],
      [
        "▁F",
        -629.0
      ],
      [
        "▁nếu",
        -630.0
      ],
      [
        "▁❤",
        -631.0
      ],
      [
        "ển",
        -632.0
      ],
      [
        "▁bỏ",
        -633.0
      ],
      [
        "uu",
        -634.0
      ],
      [
        "ợi",
        -635.0
      ],
      [
        "ẳng",
        -636.0
      ],
      [
        "▁tháng",
        -637.0
      ],
      [
        "▁Huy",
        -638.0
      ],
      [
        "▁ngoài",
        -639.0
      ],
      [
        "▁đứa",
        -640.0
      ],
      [
        "▁ổn",
        -641.0
      ],
      [
        "ss",
        -642.0
      ],
      [
        "▁Cho",
        -643.0
      ],
      [
        "ip",
        -644.0
      ],
      [
        "▁quả",
        -645.0
      ],
      [
        "it",
        -646.0
      ],
      [
        "▁?",
        -647.0
      ],
      [
        "èo",
        -648.0
      ],
      [
        "▁áo",
        -649.0
      ],
      [
        "...",
        -650.0
      ],
      [
        "▁mỗi",
        -651.0
      ],
      [
        "▁ngủ",
        -652.0
      ],
      [
        "▁I",
        -653.0
      ],
      [
        "▁điều",
        -654.0
      ],
      [
        "▁cười",
        -655.0
      ],
      [
        "▁đừng",
        -656.0
      ],
      [
        "▁:))))",
        -657.0
      ],
      [
        "▁sáng",
        -658.0
      ],
      [
        "▁hả",
        -659.0
      ],
      [
        "▁gian",
        -660.0
      ],
      [
        "▁gọi",
        -661.0
      ],
      [
        "▁=)))",
        -662.0
      ],
      [
        "▁chú",
        -663.0
      ],
      [
        "▁điệ",
        -664.0
      ],
      [
        "ạng",
        -665.0
      ],
      [
        "▁hã",
        -666.0
      ],
      [
        "▁phim",
        -667.0
      ],
      [
        "le",
        -668.0
      ],
      [
        "▁hiện",
        -669.0
      ],
      [
        "▁tên",
        -670.0
      ],
      [
        "▁ca",
        -671.0
      ],
      [
        "▁chúng",
        -672.0
      ],
      [
        "▁đời",
        -673.0
      ],
      [
        "▁gặp",
        -674.0
      ],
      [
        "▁Hà",
        -675.0
      ],
      [
        "▁🙂",
        -676.0
      ],
      [
        "▁câu",
        -677.0
      ],
      [
        "▁mắt",
        -678.0
      ],
      [
        "▁sử",
        -679.0
      ],
      [
        "!!",
        -680.0
      ],
      [
        "▁phát",
        -681.0
      ],
      [
        "▁định",
        -682.0
      ],
      [
        "uyệt",
        -683.0
      ],
      [
        "▁chết",
        -684.0
      ],
      [
        "úp",
        -685.0
      ],
      [
        "ìm",
        -686.0
      ],
      [
        "▁3",
        -687.0
      ],
      [
        "▁Giao",
        -688.0
      ],
      [
        "▁tưởng",
        -689.0
      ],
      [
        "▁dịch",
        -690.0
      ],
      [
        "▁vụ",
        -691.0
      ],
      [
        "▁bác",
        -692.0
      ],
      [
        "▁Phương",
        -693.0
      ],
      [
        "iệp",
        -694.0
      ],
      [
        "▁tặng",
        -695.0
      ],
      [
        "▁ngu",
        -696.0
      ],
      [
        "▁chịu",
        -697.0
      ],
      [
        "▁phí",
        -698.0
      ],
      [
        "▁kia",
        -699.0
      ],
      [
        "▁quy",
        -700.0
      ],
      [
        "ot",
        -701.0
      ],
      [
        "▁🤣🤣",
        -702.0
      ],
      [
        "gg",
        -703.0
      ],
      [
        "▁trời",
        -704.0
      ],
      [
        "mm",
        -705.0
      ],
      [
        "▁lý",
        -706.0
      ],
      [
        "▁minh",
        -707.0
      ],
      [
        "▁chạy",
        -708.0
      ],
      [
        "▁thường",
        -709.0
      ],
      [
        "▁so",
        -710.0
      ],
      [
        "ướng",
        -711.0
      ],
      [
        "▁ủng",
        -712.0
      ],
      [
        "▁ngay",
        -713.0
      ],
      [
        "▁dân",
        -714.0
      ],
      [
        "uyển",
        -715.0
      ],
      [
        "▁thử",
        -716.0
      ],
      [
        "▁thận",
        -717.0
      ],
      [
        "▁U",
        -718.0
      ],
      [
        "▁nhiêu",
        -719.0
      ],
      [
        "ỳnh",
        -720.0
      ],
      [
        "▁Chúc",
        -721.0
      ],
      [
        "▁de",
        -722.0
      ],
      [
        "▁Việt",
        -723.0
      ],
      [
        "ép",
        -724.0
      ],
      [
        "▁chả",
        -725.0
      ],
      [
        "▁thông",
        -726.0
      ],
      [
        "▁cm",
        -727.0
      ],
      [
        "▁Sh",
        -728.0
      ],
      [
        "▁bắt",
        -729.0
      ],
      [
        "▁hành",
        -730.0
      ],
      [
        "▁Mai",
        -731.0
      ],
      [
        "iê",
        -732.0
      ],
      [
        "▁ghê",
        -733.0
      ],
      [
        "▁đo",
        -734.0
      ],
      [
        "kkkk",
        -735.0
      ],
      [
        "ag",
        -736.0
      ],
      [
        "▁báo",
        -737.0
      ],
      [
        "▁điện",
        -738.0
      ],
      [
        "▁hài",
        -739.0
      ],
      [
        "uong",
        -740.0
      ],
      [
        "▁hát",
        -741.0
      ],
      [
        "▁tí",
        -742.0
      ],
      [
        "▁cẩn",
        -743.0
      ],
      [
        "▁chân",
        -744.0
      ],
      [
        "▁tư",
        -745.0
      ],
      [
        "😍😍",
        -746.0
      ],
      [
        "▁Phạm",
        -747.0
      ],
      [
        "▁rẻ",
        -748.0
      ],
      [
        "òi",
        -749.0
      ],
      [
        "▁sai",
        -750.0
      ],
      [
        "▁su",
        -751.0
      ],
      [
        "▁ban",
        -752.0
      ],
      [
        "▁điể",
        -753.0
      ],
      [
        "▁li",
        -754.0
      ],
      [
        "he",
        -755.0
      ],
      [
        "ùa",
        -756.0
      ],
      [
        "▁điểm",
        -757.0
      ],
      [
        "▁nhiên",
        -758.0
      ],
      [
        "▁dù",
        -759.0
      ],
      [
        "ỉnh",
        -760.0
      ],
      [
        "▁vl",
        -761.0
      ],
      [
        "00",
        -762.0
      ],
      [
        "▁mai",
        -763.0
      ],
      [
        "▁loại",
        -764.0
      ],
      [
        "▁buồn",
        -765.0
      ],
      [
        "▁kết",
        -766.0
      ],
      [
        "▁Không",
        -767.0
      ],
      [
        "▁nam",
        -768.0
      ],
      [
        "▁Trang",
        -769.0
      ],
      [
        "▁tuổi",
        -770.0
      ],
      [
        "▁oi",
        -771.0
      ],
      [
        "▁Chi",
        -772.0
      ],
      [
        "▁tìm",
        -773.0
      ],
      [
        "▁lỗi",
        -774.0
      ],
      [
        "▁Con",
        -775.0
      ],
      [
        "▁đều",
        -776.0
      ],
      [
        "ạch",
        -777.0
      ],
      [
        "àu",
        -778.0
      ],
      [
        "iiii",
        -779.0
      ],
      [
        "ing",
        -780.0
      ],
      [
        "th",
        -781.0
      ],
      [
        "▁tập",
        -782.0
      ],
      [
        "▁đầy",
        -783.0
      ],
      [
        "▁cực",
        -784.0
      ],
      [
        "ưới",
        -785.0
      ],
      [
        "▁đá",
        -786.0
      ],
      [
        "▁hi",
        -787.0
      ],
      [
        "ụp",
        -788.0
      ],
      [
        "▁trả",
        -789.0
      ],
      [
        "▁dài",
        -790.0
      ],
      [
        "▁si",
        -791.0
      ],
      [
        "▁tài",
        -792.0
      ],
      [
        "▁thay",
        -793.0
      ],
      [
        "▁thực",
        -794.0
      ],
      [
        "▁gần",
        -795.0
      ],
      [
        "ưu",
        -796.0
      ],
      [
        "▁nhạc",
        -797.0
      ],
      [
        "▁cửa",
        -798.0
      ],
      [
        "el",
        -799.0
      ],
      [
        "▁Sản",
        -800.0
      ],
      [
        "úi",
        -801.0
      ],
      [
        "▁chỗ",
        -802.0
      ],
      [
        "▁mạnh",
        -803.0
      ],
      [
        "▁đơn",
        -804.0
      ],
      [
        "....",
        -805.0
      ],
      [
        "▁chắn",
        -806.0
      ],
      [
        "▁chủ",
        -807.0
      ],
      [
        "▁phần",
        -808.0
      ],
      [
        "▁vọng",
        -809.0
      ],
      [
        "ớm",
        -810.0
      ],
      [
        "▁lời",
        -811.0
      ],
      [
        "▁lớn",
        -812.0
      ],
      [
        "▁tuyệt",
        -813.0
      ],
      [
        "▁đăng",
        -814.0
      ],
      [
        "▁ít",
        -815.0
      ],
      [
        "▁mi",
        -816.0
      ],
      [
        "▁Còn",
        -817.0
      ],
      [
        "▁Hàng",
        -818.0
      ],
      [
        "▁cầu",
        -819.0
      ],
      [
        "▁đổi",
        -820.0
      ],
      [
        "▁mãi",
        -821.0
      ],
      [
        "▁my",
        -822.0
      ],
      [
        "▁Nhưng",
        -823.0
      ],
      [
        "àm",
        -824.0
      ],
      [
        "NG",
        -825.0
      ],
      [
        "▁My",
        -826.0
      ],
      [
        "▁thức",
        -827.0
      ],
      [
        "▁fan",
        -828.0
      ],
      [
        "▁Tu",
        -829.0
      ],
      [
        "▁đau",
        -830.0
      ],
      [
        "▁năng",
        -831.0
      ],
      [
        "▁quay",
        -832.0
      ],
      [
        "▁🥲",
        -833.0
      ],
      [
        "▁cố",
        -834.0
      ],
      [
        "▁Shop",
        -835.0
      ],
      [
        "ad",
        -836.0
      ],
      [
        "▁liên",
        -837.0
      ],
      [
        "▁hai",
        -838.0
      ],
      [
        "▁hoa",
        -839.0
      ],
      [
        "ộng",
        -840.0
      ],
      [
        "▁du",
        -841.0
      ],
      [
        "ta",
        -842.0
      ],
      [
        "▁giúp",
        -843.0
      ],
      [
        "▁tối",
        -844.0
      ],
      [
        "ớt",
        -845.0
      ],
      [
        "un",
        -846.0
      ],
      [
        "▁chọn",
        -847.0
      ],
      [
        "❤❤",
        -848.0
      ],
      [
        "▁chồng",
        -849.0
      ],
      [
        "▁hồi",
        -850.0
      ],
      [
        "▁:((",
        -851.0
      ],
      [
        "▁chia",
        -852.0
      ],
      [
        "ol",
        -853.0
      ],
      [
        "▁in",
        -854.0
      ],
      [
        "▁phục",
        -855.0
      ],
      [
        "▁giải",
        -856.0
      ],
      [
        "▁trẻ",
        -857.0
      ],
      [
        "ịn",
        -858.0
      ],
      [
        "▁vẻ",
        -859.0
      ],
      [
        "jd",
        -860.0
      ],
      [
        "▁chúc",
        -861.0
      ],
      [
        "ượt",
        -862.0
      ],
      [
        "▁Á",
        -863.0
      ],
      [
        "▁cuối",
        -864.0
      ],
      [
        "ẫu",
        -865.0
      ],
      [
        "iếm",
        -866.0
      ],
      [
        "▁ha",
        -867.0
      ],
      [
        "▁đề",
        -868.0
      ],
      [
        "▁chụp",
        -869.0
      ],
      [
        "▁chuẩn",
        -870.0
      ],
      [
        "iki",
        -871.0
      ],
      [
        "ệnh",
        -872.0
      ],
      [
        "▁xài",
        -873.0
      ],
      [
        "id",
        -874.0
      ],
      [
        "▁J",
        -875.0
      ],
      [
        "uyết",
        -876.0
      ],
      [
        "▁ngồi",
        -877.0
      ],
      [
        "▁Hu",
        -878.0
      ],
      [
        "❤️",
        -879.0
      ],
      [
        "▁giảm",
        -880.0
      ],
      [
        "iển",
        -881.0
      ],
      [
        "▁trang",
        -882.0
      ],
      [
        "▁càng",
        -883.0
      ],
      [
        "▁sang",
        -884.0
      ],
      [
        "▁Sao",
        -885.0
      ],
      [
        "▁thanh",
        -886.0
      ],
      [
        "▁xa",
        -887.0
      ],
      [
        "▁sớm",
        -888.0
      ],
      [
        "ieu",
        -889.0
      ],
      [
        "▁chế",
        -890.0
      ],
      [
        "▁vợ",
        -891.0
      ],
      [
        "▁gửi",
        -892.0
      ],
      [
        "▁trình",
        -893.0
      ],
      [
        "aha",
        -894.0
      ],
      [
        "eam",
        -895.0
      ],
      [
        "▁lun",
        -896.0
      ],
      [
        "▁=))))",
        -897.0
      ],
      [
        "▁trọng",
        -898.0
      ],
      [
        "▁cháu",
        -899.0
      ],
      [
        "▁kinh",
        -900.0
      ],
      [
        "▁mô",
        -901.0
      ],
      [
        "▁đình",
        -902.0
      ],
      [
        "▁vời",
        -903.0
      ],
      [
        "▁chó",
        -904.0
      ],
      [
        "▁mn",
        -905.0
      ],
      [
        "▁re",
        -906.0
      ],
      [
        "▁quà",
        -907.0
      ],
      [
        "▁đen",
        -908.0
      ],
      [
        "▁lớp",
        -909.0
      ],
      [
        "🥰🥰",
        -910.0
      ],
      [
        "▁Ô",
        -911.0
      ],
      [
        "ak",
        -912.0
      ],
      [
        "áp",
        -913.0
      ],
      [
        "▁quần",
        -914.0
      ],
      [
        "▁nổi",
        -915.0
      ],
      [
        "▁mở",
        -916.0
      ],
      [
        "▁thơ",
        -917.0
      ],
      [
        "▁tóc",
        -918.0
      ],
      [
        "▁Thảo",
        -919.0
      ],
      [
        "▁siêu",
        -920.0
      ],
      [
        "yy",
        -921.0
      ],
      [
        "▁hu",
        -922.0
      ],
      [
        "▁Ai",
        -923.0
      ],
      [
        "▁cấp",
        -924.0
      ],
      [
        "▁chửi",
        -925.0
      ],
      [
        "▁chuyển",
        -926.0
      ],
      [
        "▁chào",
        -927.0
      ],
      [
        ":))",
        -928.0
      ],
      [
        "▁kìa",
        -929.0
      ],
      [
        "▁tiên",
        -930.0
      ],
      [
        "▁khách",
        -931.0
      ],
      [
        "us",
        -932.0
      ],
      [
        "▁cuộc",
        -933.0
      ],
      [
        "▁nu",
        -934.0
      ],
      [
        "èm",
        -935.0
      ],
      [
        "ệt",
        -936.0
      ],
      [
        "iểm",
        -937.0
      ],
      [
        "▁Cái",
        -938.0
      ],
      [
        "▁nhẹ",
        -939.0
      ],
      [
        "▁Vũ",
        -940.0
      ],
      [
        "one",
        -941.0
      ],
      [
        "▁đại",
        -942.0
      ],
      [
        "▁má",
        -943.0
      ],
      [
        "▁cứng",
        -944.0
      ],
      [
        "ze",
        -945.0
      ],
      [
        "▁<",
        -946.0
      ],
      [
        "▁uống",
        -947.0
      ],
      [
        "▁Nhìn",
        -948.0
      ],
      [
        "▁quen",
        -949.0
      ],
      [
        "▁đôi",
        -950.0
      ],
      [
        "ow",
        -951.0
      ],
      [
        "iêng",
        -952.0
      ],
      [
        "▁nghiệp",
        -953.0
      ],
      [
        "▁vid",
        -954.0
      ],
      [
        "▁từng",
        -955.0
      ],
      [
        "▁Cảm",
        -956.0
      ],
      [
        "ks",
        -957.0
      ],
      [
        "nd",
        -958.0
      ],
      [
        "▁thị",
        -959.0
      ],
      [
        "▁phòng",
        -960.0
      ],
      [
        "aaaa",
        -961.0
      ],
      [
        "▁giới",
        -962.0
      ],
      [
        "▁nhật",
        -963.0
      ],
      [
        "▁nhiệt",
        -964.0
      ],
      [
        "ụi",
        -965.0
      ],
      [
        "▁vấn",
        -966.0
      ],
      [
        "▁lực",
        -967.0
      ],
      [
        "▁hội",
        -968.0
      ],
      [
        "ảy",
        -969.0
      ],
      [
        "▁xuống",
        -970.0
      ],
      [
        "uyền",
        -971.0
      ],
      [
        "▁Mỹ",
        -972.0
      ],
      [
        "▁viết",
        -973.0
      ],
      [
        "▁Bạn",
        -974.0
      ],
      [
        "▁xuất",
        -975.0
      ],
      [
        "▁tế",
        -976.0
      ],
      [
        "▁iu",
        -977.0
      ],
      [
        "▁tầm",
        -978.0
      ],
      [
        "▁sức",
        -979.0
      ],
      [
        "▁Ko",
        -980.0
      ],
      [
        "ậm",
        -981.0
      ],
      [
        "👍👍",
        -982.0
      ],
      [
        "▁vài",
        -983.0
      ],
      [
        "▁vị",
        -984.0
      ],
      [
        "▁cl",
        -985.0
      ],
      [
        "▁xanh",
        -986.0
      ],
      [
        "ike",
        -987.0
      ],
      [
        "▁Trung",
        -988.0
      ],
      [
        "▁mừng",
        -989.0
      ],
      [
        "ếp",
        -990.0
      ],
      [
        "ien",
        -991.0
      ],
      [
        "▁đéo",
        -992.0
      ],
      [
        "▁Văn",
        -993.0
      ],
      [
        "▁hoặc",
        -994.0
      ],
      [
        "iu",
        -995.0
      ],
      [
        "▁nữ",
        -996.0
      ],
      [
        "▁bn",
        -997.0
      ],
      [
        "▁ak",
        -998.0
      ],
      [
        "▁cmt",
        -999.0
      ],
      [
        "▁tai",
        -1000.0
      ],
      [
        "te",
        -1001.0
      ],
      [
        "▁hiệu",
        -1002.0
      ],
      [
        "ỏng",
        -1003.0
      ],
      [
        "ok",
        -1004.0
      ],
      [
        "▁Kim",
        -1005.0
      ],
      [
        "▁đợi",
        -1006.0
      ],
      [
        "▁ah",
        -1007.0
      ],
      [
        "▁tuần",
        -1008.0
      ],
      [
        "is",
        -1009.0
      ],
      [
        "▁phúc",
        -1010.0
      ],
      [
        "▁bất",
        -1011.0
      ],
      [
        "▁mẫu",
        -1012.0
      ],
      [
        "▁Nếu",
        -1013.0
      ],
      [
        "▁chờ",
        -1014.0
      ],
      [
        "▁tất",
        -1015.0
      ],
      [
        "▁vãi",
        -1016.0
      ],
      [
        "▁kg",
        -1017.0
      ],
      [
        "ựa",
        -1018.0
      ],
      [
        "as",
        -1019.0
      ],
      [
        "▁nghỉ",
        -1020.0
      ],
      [
        "re",
        -1021.0
      ],
      [
        "▁#",
        -1022.0
      ],
      [
        "▁hạnh",
        -1023.0
      ],
      [
        "um",
        -1024.0
      ],
      [
        "▁bây",
        -1025.0
      ],
      [
        "▁trung",
        -1026.0
      ],
      [
        "▁Dương",
        -1027.0
      ],
      [
        "▁chẳng",
        -1028.0
      ],
      [
        "▁Xin",
        -1029.0
      ],
      [
        "uc",
        -1030.0
      ],
      [
        "▁Bảo",
        -1031.0
      ],
      [
        "▁cung",
        -1032.0
      ],
      [
        "▁dị",
        -1033.0
      ],
      [
        "▁vàng",
        -1034.0
      ],
      [
        "▁Thế",
        -1035.0
      ],
      [
        "▁mắn",
        -1036.0
      ],
      [
        "▁the",
        -1037.0
      ],
      [
        "▁bay",
        -1038.0
      ],
      [
        "▁An",
        -1039.0
      ],
      [
        "▁nguyên",
        -1040.0
      ],
      [
        "▁bệnh",
        -1041.0
      ],
      [
        "▁😂😂😂",
        -1042.0
      ],
      [
        "▁đỡ",
        -1043.0
      ],
      [
        "be",
        -1044.0
      ],
      [
        "▁lam",
        -1045.0
      ],
      [
        "ent",
        -1046.0
      ],
      [
        "▁ny",
        -1047.0
      ],
      [
        "▁bọn",
        -1048.0
      ],
      [
        "▁tinh",
        -1049.0
      ],
      [
        "▁tổ",
        -1050.0
      ],
      [
        "hu",
        -1051.0
      ],
      [
        "▁khỏi",
        -1052.0
      ],
      [
        "▁trắng",
        -1053.0
      ],
      [
        "▁thoại",
        -1054.0
      ],
      [
        "▁Tôi",
        -1055.0
      ],
      [
        "▁nội",
        -1056.0
      ],
      [
        "▁chút",
        -1057.0
      ],
      [
        "▁tham",
        -1058.0
      ],
      [
        "❤️❤️",
        -1059.0
      ],
      [
        "▁Mong",
        -1060.0
      ],
      [
        "▁se",
        -1061.0
      ],
      [
        "▁đất",
        -1062.0
      ],
      [
        "▁video",
        -1063.0
      ],
      [
        "▁ứng",
        -1064.0
      ],
      [
        "▁Đi",
        -1065.0
      ],
      [
        "ạp",
        -1066.0
      ],
      [
        "▁ck",
        -1067.0
      ],
      [
        "ine",
        -1068.0
      ],
      [
        "▁lai",
        -1069.0
      ],
      [
        "▁đưa",
        -1070.0
      ],
      [
        "óm",
        -1071.0
      ],
      [
        "ap",
        -1072.0
      ],
      [
        "▁mã",
        -1073.0
      ],
      [
        "▁yên",
        -1074.0
      ],
      [
        "ưỡ",
        -1075.0
      ],
      [
        "▁mê",
        -1076.0
      ],
      [
        "▁Hồng",
        -1077.0
      ],
      [
        "▁size",
        -1078.0
      ],
      [
        "▁cam",
        -1079.0
      ],
      [
        "▁hộp",
        -1080.0
      ],
      [
        "▁phụ",
        -1081.0
      ],
      [
        "▁live",
        -1082.0
      ],
      [
        "▁Chào",
        -1083.0
      ],
      [
        "▁Như",
        -1084.0
      ],
      [
        "▁+",
        -1085.0
      ],
      [
        "▁VN",
        -1086.0
      ],
      [
        "▁thủ",
        -1087.0
      ],
      [
        "iet",
        -1088.0
      ],
      [
        "▁kêu",
        -1089.0
      ],
      [
        "▁Na",
        -1090.0
      ],
      [
        "ẩu",
        -1091.0
      ],
      [
        "▁tạo",
        -1092.0
      ],
      [
        "▁Mua",
        -1093.0
      ],
      [
        "▁😆",
        -1094.0
      ],
      [
        "ão",
        -1095.0
      ],
      [
        "▁Quỳnh",
        -1096.0
      ],
      [
        "▁đối",
        -1097.0
      ],
      [
        "cc",
        -1098.0
      ],
      [
        "▁/",
        -1099.0
      ],
      [
        "▁cj",
        -1100.0
      ],
      [
        "99",
        -1101.0
      ],
      [
        "???",
        -1102.0
      ],
      [
        "▁bàn",
        -1103.0
      ],
      [
        "▁giác",
        -1104.0
      ],
      [
        "▁cơm",
        -1105.0
      ],
      [
        "▁kiếm",
        -1106.0
      ],
      [
        "iếc",
        -1107.0
      ],
      [
        "▁Khánh",
        -1108.0
      ],
      [
        "js",
        -1109.0
      ],
      [
        "▁ngta",
        -1110.0
      ],
      [
        "▁chán",
        -1111.0
      ],
      [
        "óp",
        -1112.0
      ],
      [
        "▁khổ",
        -1113.0
      ],
      [
        "▁sp",
        -1114.0
      ],
      [
        "▁thần",
        -1115.0
      ],
      [
        "▁Nói",
        -1116.0
      ],
      [
        "▁😂😂",
        -1117.0
      ],
      [
        "▁Đức",
        -1118.0
      ],
      [
        "ằm",
        -1119.0
      ],
      [
        "▁hãy",
        -1120.0
      ],
      [
        "▁tội",
        -1121.0
      ],
      [
        "ro",
        -1122.0
      ],
      [
        "▁mùi",
        -1123.0
      ],
      [
        "▁Phan",
        -1124.0
      ],
      [
        "▁rõ",
        -1125.0
      ],
      [
        "▁tim",
        -1126.0
      ],
      [
        "ởi",
        -1127.0
      ],
      [
        "▁khóc",
        -1128.0
      ],
      [
        "eb",
        -1129.0
      ],
      [
        "▁dẫn",
        -1130.0
      ],
      [
        "▁âm",
        -1131.0
      ],
      [
        "▁be",
        -1132.0
      ],
      [
        "▁dung",
        -1133.0
      ],
      [
        "▁cũ",
        -1134.0
      ],
      [
        "▁Nghe",
        -1135.0
      ],
      [
        "▁W",
        -1136.0
      ],
      [
        "zz",
        -1137.0
      ],
      [
        "▁văn",
        -1138.0
      ],
      [
        "ặn",
        -1139.0
      ],
      [
        "▁chiều",
        -1140.0
      ],
      [
        "▁dạ",
        -1141.0
      ],
      [
        "▁nghiệm",
        -1142.0
      ],
      [
        "▁dạy",
        -1143.0
      ],
      [
        "▁Huyền",
        -1144.0
      ],
      [
        "▁bo",
        -1145.0
      ],
      [
        "▁nhu",
        -1146.0
      ],
      [
        "▁nhe",
        -1147.0
      ],
      [
        "▁cổ",
        -1148.0
      ],
      [
        "▁no",
        -1149.0
      ],
      [
        "▁ưng",
        -1150.0
      ],
      [
        "ém",
        -1151.0
      ],
      [
        "▁ae",
        -1152.0
      ],
      [
        "▁TH",
        -1153.0
      ],
      [
        "▁quốc",
        -1154.0
      ],
      [
        "▁tục",
        -1155.0
      ],
      [
        "▁đu",
        -1156.0
      ],
      [
        "▁Đã",
        -1157.0
      ],
      [
        "▁Chất",
        -1158.0
      ],
      [
        "▁pin",
        -1159.0
      ],
      [
        "▁me",
        -1160.0
      ],
      [
        "▁kiến",
        -1161.0
      ],
      [
        "▁nơi",
        -1162.0
      ],
      [
        "▁diễn",
        -1163.0
      ],
      [
        "▁kkk",
        -1164.0
      ],
      [
        "ỏe",
        -1165.0
      ],
      [
        "ọt",
        -1166.0
      ],
      [
        "▁😌",
        -1167.0
      ],
      [
        "▁ship",
        -1168.0
      ],
      [
        "▁bóng",
        -1169.0
      ],
      [
        "▁mạng",
        -1170.0
      ],
      [
        "▁quên",
        -1171.0
      ],
      [
        "▁you",
        -1172.0
      ],
      [
        "▁đêm",
        -1173.0
      ],
      [
        "▁mưa",
        -1174.0
      ],
      [
        "▁Tran",
        -1175.0
      ],
      [
        "▁Chắc",
        -1176.0
      ],
      [
        "▁khỏe",
        -1177.0
      ],
      [
        "▁Làm",
        -1178.0
      ],
      [
        "▁thiếu",
        -1179.0
      ],
      [
        "▁vc",
        -1180.0
      ],
      [
        "kg",
        -1181.0
      ],
      [
        "▁hệ",
        -1182.0
      ],
      [
        "uyến",
        -1183.0
      ],
      [
        "▁đỏ",
        -1184.0
      ],
      [
        "▁Xu",
        -1185.0
      ],
      [
        "▁tác",
        -1186.0
      ],
      [
        "èn",
        -1187.0
      ],
      [
        "hhhh",
        -1188.0
      ],
      [
        "ell",
        -1189.0
      ],
      [
        "▁Chỉ",
        -1190.0
      ],
      [
        "▁giáo",
        -1191.0
      ],
      [
        "▁cây",
        -1192.0
      ],
      [
        "▁xo",
        -1193.0
      ],
      [
        "▁nhờ",
        -1194.0
      ],
      [
        "âng",
        -1195.0
      ],
      [
        "▁Giá",
        -1196.0
      ],
      [
        "▁Người",
        -1197.0
      ],
      [
        "▁sĩ",
        -1198.0
      ],
      [
        "▁lịch",
        -1199.0
      ],
      [
        "▁Ngân",
        -1200.0
      ],
      [
        "▁hoàn",
        -1201.0
      ],
      [
        "os",
        -1202.0
      ],
      [
        "▁áp",
        -1203.0
      ],
      [
        "▁🤣🤣🤣",
        -1204.0
      ],
      [
        "▁Ủ",
        -1205.0
      ],
      [
        "▁xưa",
        -1206.0
      ],
      [
        "▁biệt",
        -1207.0
      ],
      [
        "ale",
        -1208.0
      ],
      [
        "▁dự",
        -1209.0
      ],
      [
        "▁:(",
        -1210.0
      ],
      [
        "▁cảnh",
        -1211.0
      ],
      [
        "▁CH",
        -1212.0
      ],
      [
        "▁like",
        -1213.0
      ],
      [
        "▁!",
        -1214.0
      ],
      [
        "▁Hải",
        -1215.0
      ],
      [
        "ww",
        -1216.0
      ],
      [
        "ut",
        -1217.0
      ],
      [
        "▁Duy",
        -1218.0
      ],
      [
        "▁cha",
        -1219.0
      ],
      [
        "ộn",
        -1220.0
      ],
      [
        "▁trị",
        -1221.0
      ],
      [
        "▁Nhi",
        -1222.0
      ],
      [
        "óa",
        -1223.0
      ],
      [
        "▁tử",
        -1224.0
      ],
      [
        "▁Thành",
        -1225.0
      ],
      [
        "▁cua",
        -1226.0
      ],
      [
        "▁hồ",
        -1227.0
      ],
      [
        "▁trở",
        -1228.0
      ],
      [
        "▁bánh",
        -1229.0
      ],
      [
        "😘😘",
        -1230.0
      ],
      [
        "ãy",
        -1231.0
      ],
      [
        "▁túi",
        -1232.0
      ],
      [
        "▁lương",
        -1233.0
      ],
      [
        "▁sữa",
        -1234.0
      ],
      [
        "▁đỉnh",
        -1235.0
      ],
      [
        "tttt",
        -1236.0
      ],
      [
        "▁thơm",
        -1237.0
      ],
      [
        "▁Lo",
        -1238.0
      ],
      [
        "▁tiết",
        -1239.0
      ],
      [
        "▁mùa",
        -1240.0
      ],
      [
        "▁chữ",
        -1241.0
      ],
      [
        "ack",
        -1242.0
      ],
      [
        "▁đàn",
        -1243.0
      ],
      [
        "▁dám",
        -1244.0
      ],
      [
        "▁sắc",
        -1245.0
      ],
      [
        "▁cụ",
        -1246.0
      ],
      [
        "▁sắp",
        -1247.0
      ],
      [
        "▁tiện",
        -1248.0
      ],
      [
        "▁Các",
        -1249.0
      ],
      [
        "▁Co",
        -1250.0
      ],
      [
        "▁nghĩa",
        -1251.0
      ],
      [
        "▁lạnh",
        -1252.0
      ],
      [
        "▁giả",
        -1253.0
      ],
      [
        "íu",
        -1254.0
      ],
      [
        "ẹn",
        -1255.0
      ],
      [
        "▁Quang",
        -1256.0
      ],
      [
        "▁cầm",
        -1257.0
      ],
      [
        "ck",
        -1258.0
      ],
      [
        "▁ô",
        -1259.0
      ],
      [
        "ón",
        -1260.0
      ],
      [
        "▁tương",
        -1261.0
      ],
      [
        "▁chê",
        -1262.0
      ],
      [
        "ẩy",
        -1263.0
      ],
      [
        "com",
        -1264.0
      ],
      [
        "ẳn",
        -1265.0
      ],
      [
        "▁chống",
        -1266.0
      ],
      [
        "▁mo",
        -1267.0
      ],
      [
        "▁Hương",
        -1268.0
      ],
      [
        "▁già",
        -1269.0
      ],
      [
        "▁haha",
        -1270.0
      ],
      [
        "▁nhập",
        -1271.0
      ],
      [
        "▁tra",
        -1272.0
      ],
      [
        "▁va",
        -1273.0
      ],
      [
        "▁giữ",
        -1274.0
      ],
      [
        "▁che",
        -1275.0
      ],
      [
        "▁Mấy",
        -1276.0
      ],
      [
        "▁tăng",
        -1277.0
      ],
      [
        "▁mệt",
        -1278.0
      ],
      [
        "jj",
        -1279.0
      ],
      [
        "▁lạ",
        -1280.0
      ],
      [
        "▁sách",
        -1281.0
      ],
      [
        "▁hãng",
        -1282.0
      ],
      [
        "▁viện",
        -1283.0
      ],
      [
        "▁Giang",
        -1284.0
      ],
      [
        "▁vải",
        -1285.0
      ],
      [
        "ùy",
        -1286.0
      ],
      [
        "ph",
        -1287.0
      ],
      [
        "▁mũ",
        -1288.0
      ],
      [
        "▁gấu",
        -1289.0
      ],
      [
        "▁đứng",
        -1290.0
      ],
      [
        "▁việt",
        -1291.0
      ],
      [
        "▁Bình",
        -1292.0
      ],
      [
        "age",
        -1293.0
      ],
      [
        "▁bữa",
        -1294.0
      ],
      [
        "▁hướng",
        -1295.0
      ],
      [
        "▁Lan",
        -1296.0
      ],
      [
        "▁nt",
        -1297.0
      ],
      [
        "▁nặng",
        -1298.0
      ],
      [
        "ưỡng",
        -1299.0
      ],
      [
        "😭😭",
        -1300.0
      ],
      [
        "▁thất",
        -1301.0
      ],
      [
        "ig",
        -1302.0
      ],
      [
        "▁😁",
        -1303.0
      ],
      [
        "▁Quốc",
        -1304.0
      ],
      [
        "▁xấu",
        -1305.0
      ],
      [
        "ồm",
        -1306.0
      ],
      [
        "▁riêng",
        -1307.0
      ],
      [
        "nnnn",
        -1308.0
      ],
      [
        "▁giỏi",
        -1309.0
      ],
      [
        "ook",
        -1310.0
      ],
      [
        "▁Nhật",
        -1311.0
      ],
      [
        "bd",
        -1312.0
      ],
      [
        "▁liền",
        -1313.0
      ],
      [
        "▁phù",
        -1314.0
      ],
      [
        "▁nuôi",
        -1315.0
      ],
      [
        "▁địa",
        -1316.0
      ],
      [
        "ff",
        -1317.0
      ],
      [
        "▁Ngh",
        -1318.0
      ],
      [
        "▁tận",
        -1319.0
      ],
      [
        "▁on",
        -1320.0
      ],
      [
        "lo",
        -1321.0
      ],
      [
        "▁cai",
        -1322.0
      ],
      [
        "▁trí",
        -1323.0
      ],
      [
        "▁vật",
        -1324.0
      ],
      [
        "▁đội",
        -1325.0
      ],
      [
        "▁Rất",
        -1326.0
      ],
      [
        "▁liệu",
        -1327.0
      ],
      [
        "▁đông",
        -1328.0
      ],
      [
        "▁ne",
        -1329.0
      ],
      [
        "oàn",
        -1330.0
      ],
      [
        "▁kể",
        -1331.0
      ],
      [
        "▁cứu",
        -1332.0
      ],
      [
        "▁ly",
        -1333.0
      ],
      [
        "▁Đúng",
        -1334.0
      ],
      [
        "iêm",
        -1335.0
      ],
      [
        "▁dưới",
        -1336.0
      ],
      [
        "▁mề",
        -1337.0
      ],
      [
        "▁Công",
        -1338.0
      ],
      [
        "▁xác",
        -1339.0
      ],
      [
        "▁Huỳnh",
        -1340.0
      ],
      [
        "▁😞",
        -1341.0
      ],
      [
        "▁...",
        -1342.0
      ],
      [
        "de",
        -1343.0
      ],
      [
        "▁tụi",
        -1344.0
      ],
      [
        "▁cáo",
        -1345.0
      ],
      [
        "▁thiệt",
        -1346.0
      ],
      [
        "▁hẳn",
        -1347.0
      ],
      [
        "▁tiêu",
        -1348.0
      ],
      [
        "▁Hoa",
        -1349.0
      ],
      [
        "▁Mẹ",
        -1350.0
      ],
      [
        "▁thiết",
        -1351.0
      ],
      [
        "▁mắc",
        -1352.0
      ],
      [
        "ót",
        -1353.0
      ],
      [
        "▁giàu",
        -1354.0
      ],
      [
        "▁án",
        -1355.0
      ],
      [
        "▁thiện",
        -1356.0
      ],
      [
        "▁Tuấn",
        -1357.0
      ],
      [
        "▁Ở",
        -1358.0
      ],
      [
        "▁Tiki",
        -1359.0
      ],
      [
        "▁nóng",
        -1360.0
      ],
      [
        "▁Di",
        -1361.0
      ],
      [
        "▁tết",
        -1362.0
      ],
      [
        "▁nằm",
        -1363.0
      ],
      [
        "▁môi",
        -1364.0
      ],
      [
        "▁cưới",
        -1365.0
      ],
      [
        "▁Le",
        -1366.0
      ],
      [
        "hd",
        -1367.0
      ],
      [
        "▁Cô",
        -1368.0
      ],
      [
        "▁triệu",
        -1369.0
      ],
      [
        "▁thua",
        -1370.0
      ],
      [
        "▁😅",
        -1371.0
      ],
      [
        "▁quê",
        -1372.0
      ],
      [
        "▁mỹ",
        -1373.0
      ],
      [
        "▁khu",
        -1374.0
      ],
      [
        "▁nhá",
        -1375.0
      ],
      [
        "▁Ủa",
        -1376.0
      ],
      [
        "▁đê",
        -1377.0
      ],
      [
        "▁lí",
        -1378.0
      ],
      [
        "▁nghệ",
        -1379.0
      ],
      [
        "▁tượng",
        -1380.0
      ],
      [
        "▁sale",
        -1381.0
      ],
      [
        "▁Yêu",
        -1382.0
      ],
      [
        "^^",
        -1383.0
      ],
      [
        "▁môn",
        -1384.0
      ],
      [
        "il",
        -1385.0
      ],
      [
        "▁trái",
        -1386.0
      ],
      [
        "▁Thương",
        -1387.0
      ],
      [
        "▁trc",
        -1388.0
      ],
      [
        "▁đa",
        -1389.0
      ],
      [
        "▁kỳ",
        -1390.0
      ],
      [
        "88",
        -1391.0
      ],
      [
        "▁màn",
        -1392.0
      ],
      [
        "▁kem",
        -1393.0
      ],
      [
        "▁Xem",
        -1394.0
      ],
      [
        "▁giấy",
        -1395.0
      ],
      [
        "▁Khi",
        -1396.0
      ],
      [
        "▁Hình",
        -1397.0
      ],
      [
        "▁mơ",
        -1398.0
      ],
      [
        "▁Mà",
        -1399.0
      ],
      [
        "▁nao",
        -1400.0
      ],
      [
        "▁vệ",
        -1401.0
      ],
      [
        "▁Ông",
        -1402.0
      ],
      [
        "iii",
        -1403.0
      ],
      [
        "▁Yến",
        -1404.0
      ],
      [
        "▁bi",
        -1405.0
      ],
      [
        "▁Thái",
        -1406.0
      ],
      [
        "▁thẻ",
        -1407.0
      ],
      [
        "NH",
        -1408.0
      ],
      [
        "▁Cu",
        -1409.0
      ],
      [
        "▁chiếc",
        -1410.0
      ],
      [
        "▁Máy",
        -1411.0
      ],
      [
        "▁sẻ",
        -1412.0
      ],
      [
        "gi",
        -1413.0
      ],
      [
        "ợt",
        -1414.0
      ],
      [
        "▁kèm",
        -1415.0
      ],
      [
        "dd",
        -1416.0
      ],
      [
        "▁cắt",
        -1417.0
      ],
      [
        "▁Đóng",
        -1418.0
      ],
      [
        "▁linh",
        -1419.0
      ],
      [
        "ank",
        -1420.0
      ],
      [
        "▁per",
        -1421.0
      ],
      [
        "ún",
        -1422.0
      ],
      [
        "▁dậy",
        -1423.0
      ],
      [
        "▁Chưa",
        -1424.0
      ],
      [
        "▁Vy",
        -1425.0
      ],
      [
        "▁mềm",
        -1426.0
      ],
      [
        "▁cậu",
        -1427.0
      ],
      [
        "▁Nhà",
        -1428.0
      ],
      [
        "▁quyết",
        -1429.0
      ],
      [
        "pppp",
        -1430.0
      ],
      [
        "▁dây",
        -1431.0
      ],
      [
        "▁st",
        -1432.0
      ],
      [
        "ns",
        -1433.0
      ],
      [
        "▁Nhung",
        -1434.0
      ],
      [
        "ĩnh",
        -1435.0
      ],
      [
        "▁Long",
        -1436.0
      ],
      [
        "▁đòi",
        -1437.0
      ],
      [
        "ịp",
        -1438.0
      ],
      [
        "▁Vì",
        -1439.0
      ],
      [
        "▁ghi",
        -1440.0
      ],
      [
        "▁Bao",
        -1441.0
      ],
      [
        "▁kế",
        -1442.0
      ],
      [
        "▁top",
        -1443.0
      ],
      [
        "▁đeo",
        -1444.0
      ],
      [
        "▁nhảy",
        -1445.0
      ],
      [
        "▁hồng",
        -1446.0
      ],
      [
        "▁tích",
        -1447.0
      ],
      [
        "▁kỹ",
        -1448.0
      ],
      [
        "▁kiện",
        -1449.0
      ],
      [
        "▁Hi",
        -1450.0
      ],
      [
        "▁mái",
        -1451.0
      ],
      [
        "▁Vân",
        -1452.0
      ],
      [
        "iếng",
        -1453.0
      ],
      [
        "▁chí",
        -1454.0
      ],
      [
        "▁😍",
        -1455.0
      ],
      [
        "are",
        -1456.0
      ],
      [
        "▁mau",
        -1457.0
      ],
      [
        "▁bắn",
        -1458.0
      ],
      [
        "▁Gia",
        -1459.0
      ],
      [
        "eu",
        -1460.0
      ],
      [
        "▁roi",
        -1461.0
      ],
      [
        "▁chuyên",
        -1462.0
      ],
      [
        "▁he",
        -1463.0
      ],
      [
        "▁danh",
        -1464.0
      ],
      [
        "▁Sau",
        -1465.0
      ],
      [
        "▁dành",
        -1466.0
      ],
      [
        "▁gắng",
        -1467.0
      ],
      [
        "▁suy",
        -1468.0
      ],
      [
        "▁lắp",
        -1469.0
      ],
      [
        "kkkkkkkk",
        -1470.0
      ],
      [
        "▁Nên",
        -1471.0
      ],
      [
        "▁trò",
        -1472.0
      ],
      [
        "▁đoạn",
        -1473.0
      ],
      [
        "▁thui",
        -1474.0
      ],
      [
        "▁Hôm",
        -1475.0
      ],
      [
        "▁đổ",
        -1476.0
      ],
      [
        "▁id",
        -1477.0
      ],
      [
        "▁thái",
        -1478.0
      ],
      [
        "▁mèo",
        -1479.0
      ],
      [
        "▁hút",
        -1480.0
      ],
      [
        "▁nhắn",
        -1481.0
      ],
      [
        "ứt",
        -1482.0
      ],
      [
        "▁mk",
        -1483.0
      ],
      [
        "▁mát",
        -1484.0
      ],
      [
        "gggg",
        -1485.0
      ],
      [
        "eeee",
        -1486.0
      ],
      [
        "▁Đỗ",
        -1487.0
      ],
      [
        "▁Xuân",
        -1488.0
      ],
      [
        "▁hà",
        -1489.0
      ],
      [
        "▁chậm",
        -1490.0
      ],
      [
        "▁Hay",
        -1491.0
      ],
      [
        "▁kí",
        -1492.0
      ],
      [
        "▁tiki",
        -1493.0
      ],
      [
        "▁hihi",
        -1494.0
      ],
      [
        "es",
        -1495.0
      ],
      [
        "▁kiểm",
        -1496.0
      ],
      [
        "▁cân",
        -1497.0
      ],
      [
        "ab",
        -1498.0
      ],
      [
        "▁xử",
        -1499.0
      ],
      [
        "▁lm",
        -1500.0
      ],
      [
        "▁xịn",
        -1501.0
      ],
      [
        "▁gà",
        -1502.0
      ],
      [
        "▁hoạt",
        -1503.0
      ],
      [
        "▁chức",
        -1504.0
      ],
      [
        "▁Ok",
        -1505.0
      ],
      [
        "▁Thi",
        -1506.0
      ],
      [
        "▁Mới",
        -1507.0
      ],
      [
        "▁buổi",
        -1508.0
      ],
      [
        "▁ngoại",
        -1509.0
      ],
      [
        "▁cưng",
        -1510.0
      ],
      [
        "▁Và",
        -1511.0
      ],
      [
        "▁quán",
        -1512.0
      ],
      [
        "▁thuốc",
        -1513.0
      ],
      [
        "▁thuyết",
        -1514.0
      ],
      [
        "▁mít",
        -1515.0
      ],
      [
        "▁nắng",
        -1516.0
      ],
      [
        "▁tả",
        -1517.0
      ],
      [
        "ât",
        -1518.0
      ],
      [
        "▁đạo",
        -1519.0
      ],
      [
        "▁Đẹp",
        -1520.0
      ],
      [
        "▁lợi",
        -1521.0
      ],
      [
        "▁êm",
        -1522.0
      ],
      [
        "ỉu",
        -1523.0
      ],
      [
        "▁Do",
        -1524.0
      ],
      [
        "▁lẽ",
        -1525.0
      ],
      [
        "▁chăm",
        -1526.0
      ],
      [
        "▁Bùi",
        -1527.0
      ],
      [
        "▁Z",
        -1528.0
      ],
      [
        "▁tuy",
        -1529.0
      ],
      [
        "▁yếu",
        -1530.0
      ],
      [
        "▁sạch",
        -1531.0
      ],
      [
        "▁sạc",
        -1532.0
      ],
      [
        "ink",
        -1533.0
      ],
      [
        "▁ngờ",
        -1534.0
      ],
      [
        "▁thiên",
        -1535.0
      ],
      [
        "ver",
        -1536.0
      ],
      [
        "66",
        -1537.0
      ],
      [
        ",,",
        -1538.0
      ],
      [
        "▁khoảng",
        -1539.0
      ],
      [
        "ênh",
        -1540.0
      ],
      [
        "▁chai",
        -1541.0
      ],
      [
        "▁kĩ",
        -1542.0
      ],
      [
        "▁Để",
        -1543.0
      ],
      [
        "ion",
        -1544.0
      ],
      [
        "▁😢",
        -1545.0
      ],
      [
        "▁Ngày",
        -1546.0
      ],
      [
        "▁dầu",
        -1547.0
      ],
      [
        "ịnh",
        -1548.0
      ],
      [
        "ma",
        -1549.0
      ],
      [
        "▁hôn",
        -1550.0
      ],
      [
        "▁Giờ",
        -1551.0
      ],
      [
        "▁hong",
        -1552.0
      ],
      [
        "if",
        -1553.0
      ],
      [
        "▁Thấy",
        -1554.0
      ],
      [
        "........",
        -1555.0
      ],
      [
        "▁Một",
        -1556.0
      ],
      [
        "▁Hiếu",
        -1557.0
      ],
      [
        "▁ty",
        -1558.0
      ],
      [
        "▁Nó",
        -1559.0
      ],
      [
        "▁quyền",
        -1560.0
      ],
      [
        "▁máu",
        -1561.0
      ],
      [
        "aceb",
        -1562.0
      ],
      [
        "55",
        -1563.0
      ],
      [
        "▁vòng",
        -1564.0
      ],
      [
        "▁khoản",
        -1565.0
      ],
      [
        "▁@",
        -1566.0
      ],
      [
        "▁??",
        -1567.0
      ],
      [
        "▁ố",
        -1568.0
      ],
      [
        "▁10",
        -1569.0
      ],
      [
        "▁nguy",
        -1570.0
      ],
      [
        "▁wa",
        -1571.0
      ],
      [
        "▁nấu",
        -1572.0
      ],
      [
        "and",
        -1573.0
      ],
      [
        "▁phân",
        -1574.0
      ],
      [
        "▁te",
        -1575.0
      ],
      [
        "▁Nguyên",
        -1576.0
      ],
      [
        "▁nhi",
        -1577.0
      ],
      [
        "▁rùi",
        -1578.0
      ],
      [
        "▁chương",
        -1579.0
      ],
      [
        "▁chấp",
        -1580.0
      ],
      [
        "oy",
        -1581.0
      ],
      [
        "▁xíu",
        -1582.0
      ],
      [
        "▁Pham",
        -1583.0
      ],
      [
        "▁khoẻ",
        -1584.0
      ],
      [
        "▁Ad",
        -1585.0
      ],
      [
        "▁xúc",
        -1586.0
      ],
      [
        "▁dạo",
        -1587.0
      ],
      [
        "▁Mi",
        -1588.0
      ],
      [
        "▁cute",
        -1589.0
      ],
      [
        "▁Chu",
        -1590.0
      ],
      [
        "▁Tùng",
        -1591.0
      ],
      [
        "77",
        -1592.0
      ],
      [
        "▁biến",
        -1593.0
      ],
      [
        "▁hạn",
        -1594.0
      ],
      [
        "▁hông",
        -1595.0
      ],
      [
        "ello",
        -1596.0
      ],
      [
        "▁voi",
        -1597.0
      ],
      [
        "▁ký",
        -1598.0
      ],
      [
        "iew",
        -1599.0
      ],
      [
        "ịa",
        -1600.0
      ],
      [
        "▁cx",
        -1601.0
      ],
      [
        "▁dòng",
        -1602.0
      ],
      [
        "line",
        -1603.0
      ],
      [
        "▁mụ",
        -1604.0
      ],
      [
        "▁Nội",
        -1605.0
      ],
      [
        "ub",
        -1606.0
      ],
      [
        "▁Mu",
        -1607.0
      ],
      [
        "▁ư",
        -1608.0
      ],
      [
        "▁Lúc",
        -1609.0
      ],
      [
        "▁đặc",
        -1610.0
      ],
      [
        "▁^^",
        -1611.0
      ],
      [
        "▁ôm",
        -1612.0
      ],
      [
        "▁Từ",
        -1613.0
      ],
      [
        "▁sư",
        -1614.0
      ],
      [
        "▁xã",
        -1615.0
      ],
      [
        "ẹo",
        -1616.0
      ],
      [
        "▁dữ",
        -1617.0
      ],
      [
        "uuuu",
        -1618.0
      ],
      [
        "▁fr",
        -1619.0
      ],
      [
        "▁hưởng",
        -1620.0
      ],
      [
        "▁=))))))",
        -1621.0
      ],
      [
        "▁tải",
        -1622.0
      ],
      [
        "▁moi",
        -1623.0
      ],
      [
        "▁tạm",
        -1624.0
      ],
      [
        "▁trận",
        -1625.0
      ],
      [
        "▁phong",
        -1626.0
      ],
      [
        "▁Cũng",
        -1627.0
      ],
      [
        "▁Dạ",
        -1628.0
      ],
      [
        "▁giọng",
        -1629.0
      ],
      [
        "▁trải",
        -1630.0
      ],
      [
        "▁99",
        -1631.0
      ],
      [
        "▁ntn",
        -1632.0
      ],
      [
        "▁Tâm",
        -1633.0
      ],
      [
        "▁chiến",
        -1634.0
      ],
      [
        "▁thoi",
        -1635.0
      ],
      [
        "▁str",
        -1636.0
      ],
      [
        "oa",
        -1637.0
      ],
      [
        "▁Thầy",
        -1638.0
      ],
      [
        "▁huhu",
        -1639.0
      ],
      [
        "▁noi",
        -1640.0
      ],
      [
        "▁chốt",
        -1641.0
      ],
      [
        "▁rằng",
        -1642.0
      ],
      [
        "▁Áo",
        -1643.0
      ],
      [
        "kd",
        -1644.0
      ],
      [
        "ìu",
        -1645.0
      ],
      [
        "ùm",
        -1646.0
      ],
      [
        "▁tag",
        -1647.0
      ],
      [
        "▁trông",
        -1648.0
      ],
      [
        "44",
        -1649.0
      ],
      [
        "▁Đây",
        -1650.0
      ],
      [
        "▁lành",
        -1651.0
      ],
      [
        "▁Ngoc",
        -1652.0
      ],
      [
        "▁mũi",
        -1653.0
      ],
      [
        "▁Hồ",
        -1654.0
      ],
      [
        "ướt",
        -1655.0
      ],
      [
        "▁ổng",
        -1656.0
      ],
      [
        "▁Võ",
        -1657.0
      ],
      [
        "▁í",
        -1658.0
      ],
      [
        "▁NH",
        -1659.0
      ],
      [
        "▁ve",
        -1660.0
      ],
      [
        "▁nghèo",
        -1661.0
      ],
      [
        "▁rửa",
        -1662.0
      ],
      [
        "▁sơ",
        -1663.0
      ],
      [
        "ữu",
        -1664.0
      ],
      [
        "iếp",
        -1665.0
      ],
      [
        "▁Tú",
        -1666.0
      ],
      [
        "▁tỉnh",
        -1667.0
      ],
      [
        "▁khẩu",
        -1668.0
      ],
      [
        "▁trợ",
        -1669.0
      ],
      [
        "ep",
        -1670.0
      ],
      [
        "▁😊",
        -1671.0
      ],
      [
        "▁Thôi",
        -1672.0
      ],
      [
        "▁hồn",
        -1673.0
      ],
      [
        "▁Ly",
        -1674.0
      ],
      [
        "▁mồm",
        -1675.0
      ],
      [
        "▁Đang",
        -1676.0
      ],
      [
        "▁ví",
        -1677.0
      ],
      [
        "▁Cứ",
        -1678.0
      ],
      [
        "▁Ba",
        -1679.0
      ],
      [
        "▁Vậy",
        -1680.0
      ],
      [
        "▁vận",
        -1681.0
      ],
      [
        "▁son",
        -1682.0
      ],
      [
        "õi",
        -1683.0
      ],
      [
        "▁hoá",
        -1684.0
      ],
      [
        "▁Đặng",
        -1685.0
      ],
      [
        "▁thắng",
        -1686.0
      ],
      [
        "//",
        -1687.0
      ],
      [
        "▁kịp",
        -1688.0
      ],
      [
        "▁dày",
        -1689.0
      ],
      [
        "▁Ngô",
        -1690.0
      ],
      [
        "▁Dung",
        -1691.0
      ],
      [
        "▁pháp",
        -1692.0
      ],
      [
        "▁món",
        -1693.0
      ],
      [
        "bb",
        -1694.0
      ],
      [
        "▁bt",
        -1695.0
      ],
      [
        "▁ước",
        -1696.0
      ],
      [
        "▁com",
        -1697.0
      ],
      [
        "▁mức",
        -1698.0
      ],
      [
        "▁mời",
        -1699.0
      ],
      [
        "▁phương",
        -1700.0
      ],
      [
        "▁vk",
        -1701.0
      ],
      [
        "▁đẻ",
        -1702.0
      ],
      [
        "▁đem",
        -1703.0
      ],
      [
        "▁quân",
        -1704.0
      ],
      [
        "▁độc",
        -1705.0
      ],
      [
        "▁kéo",
        -1706.0
      ],
      [
        "▁Sơn",
        -1707.0
      ],
      [
        "▁Thùy",
        -1708.0
      ],
      [
        "▁chua",
        -1709.0
      ],
      [
        "sh",
        -1710.0
      ],
      [
        "▁bớt",
        -1711.0
      ],
      [
        "▁đt",
        -1712.0
      ],
      [
        "▁chục",
        -1713.0
      ],
      [
        "▁Bộ",
        -1714.0
      ],
      [
        "ễm",
        -1715.0
      ],
      [
        "▁tô",
        -1716.0
      ],
      [
        "ate",
        -1717.0
      ],
      [
        "▁Rồi",
        -1718.0
      ],
      [
        "▁rộng",
        -1719.0
      ],
      [
        "▁:)))))",
        -1720.0
      ],
      [
        "▁😀",
        -1721.0
      ],
      [
        "▁thư",
        -1722.0
      ],
      [
        "▁tệ",
        -1723.0
      ],
      [
        "--",
        -1724.0
      ],
      [
        "▁giữa",
        -1725.0
      ],
      [
        "▁98",
        -1726.0
      ],
      [
        "▁nạn",
        -1727.0
      ],
      [
        "ps",
        -1728.0
      ],
      [
        "▁lạc",
        -1729.0
      ],
      [
        "▁Ă",
        -1730.0
      ],
      [
        "▁trưởng",
        -1731.0
      ],
      [
        "vv",
        -1732.0
      ],
      [
        "▁nửa",
        -1733.0
      ],
      [
        "▁tiếc",
        -1734.0
      ],
      [
        "▁Thật",
        -1735.0
      ],
      [
        "=))",
        -1736.0
      ],
      [
        "▁khô",
        -1737.0
      ],
      [
        "▁nc",
        -1738.0
      ],
      [
        "▁lưu",
        -1739.0
      ],
      [
        "▁Thủ",
        -1740.0
      ],
      [
        "ote",
        -1741.0
      ],
      [
        "▁Uy",
        -1742.0
      ],
      [
        "▁bụng",
        -1743.0
      ],
      [
        "▁\"",
        -1744.0
      ],
      [
        "end",
        -1745.0
      ],
      [
        "▁toi",
        -1746.0
      ],
      [
        "acebook",
        -1747.0
      ],
      [
        "▁Hằng",
        -1748.0
      ],
      [
        "▁tranh",
        -1749.0
      ],
      [
        "▁clip",
        -1750.0
      ],
      [
        "▁nhieu",
        -1751.0
      ],
      [
        "▁sát",
        -1752.0
      ],
      [
        "▁biển",
        -1753.0
      ],
      [
        "▁cộng",
        -1754.0
      ],
      [
        "▁hẹn",
        -1755.0
      ],
      [
        "ãn",
        -1756.0
      ],
      [
        "ẵn",
        -1757.0
      ],
      [
        "▁cà",
        -1758.0
      ],
      [
        "▁ru",
        -1759.0
      ],
      [
        "▁tức",
        -1760.0
      ],
      [
        "▁sửa",
        -1761.0
      ],
      [
        "▁team",
        -1762.0
      ],
      [
        "▁tín",
        -1763.0
      ],
      [
        "▁chứng",
        -1764.0
      ],
      [
        "▁gọn",
        -1765.0
      ],
      [
        "▁vai",
        -1766.0
      ],
      [
        "▁lông",
        -1767.0
      ],
      [
        "▁ct",
        -1768.0
      ],
      [
        "▁)",
        -1769.0
      ],
      [
        "▁Hai",
        -1770.0
      ],
      [
        "▁Quá",
        -1771.0
      ],
      [
        "▁:>",
        -1772.0
      ],
      [
        "▁huy",
        -1773.0
      ],
      [
        "▁duy",
        -1774.0
      ],
      [
        "▁Trong",
        -1775.0
      ],
      [
        "▁up",
        -1776.0
      ],
      [
        "▁phản",
        -1777.0
      ],
      [
        "▁Ha",
        -1778.0
      ],
      [
        "▁nhắc",
        -1779.0
      ],
      [
        "▁Thư",
        -1780.0
      ],
      [
        "▁cập",
        -1781.0
      ],
      [
        "▁Ăn",
        -1782.0
      ],
      [
        "▁Tui",
        -1783.0
      ],
      [
        "▁góp",
        -1784.0
      ],
      [
        "▁trách",
        -1785.0
      ],
      [
        "▁ngân",
        -1786.0
      ],
      [
        "▁thịt",
        -1787.0
      ],
      [
        "▁suốt",
        -1788.0
      ],
      [
        "▁Trường",
        -1789.0
      ],
      [
        "▁:))))))",
        -1790.0
      ],
      [
        "▁duyên",
        -1791.0
      ],
      [
        "▁ơ",
        -1792.0
      ],
      [
        "▁Hiền",
        -1793.0
      ],
      [
        "▁phố",
        -1794.0
      ],
      [
        "▁toán",
        -1795.0
      ],
      [
        "👌👌",
        -1796.0
      ],
      [
        "▁Bé",
        -1797.0
      ],
      [
        "▁page",
        -1798.0
      ],
      [
        "▁diện",
        -1799.0
      ],
      [
        "▁hk",
        -1800.0
      ],
      [
        "▁cục",
        -1801.0
      ],
      [
        "▁🥰",
        -1802.0
      ],
      [
        "▁kém",
        -1803.0
      ],
      [
        "▁xét",
        -1804.0
      ],
      [
        "▁sài",
        -1805.0
      ],
      [
        "▁Lần",
        -1806.0
      ],
      [
        "▁May",
        -1807.0
      ],
      [
        "▁Thích",
        -1808.0
      ],
      [
        "▁bật",
        -1809.0
      ],
      [
        "▁;",
        -1810.0
      ],
      [
        "▁🙄",
        -1811.0
      ],
      [
        "▁mỏng",
        -1812.0
      ],
      [
        "▁kích",
        -1813.0
      ],
      [
        "▁cuốn",
        -1814.0
      ],
      [
        "▁Đừng",
        -1815.0
      ],
      [
        "▁TR",
        -1816.0
      ],
      [
        "▁phép",
        -1817.0
      ],
      [
        "▁Tuy",
        -1818.0
      ],
      [
        "ộm",
        -1819.0
      ],
      [
        "iềm",
        -1820.0
      ],
      [
        "▁dau",
        -1821.0
      ],
      [
        "▁bổ",
        -1822.0
      ],
      [
        "▁nhầm",
        -1823.0
      ],
      [
        "me",
        -1824.0
      ],
      [
        "òa",
        -1825.0
      ],
      [
        "úy",
        -1826.0
      ],
      [
        "▁củ",
        -1827.0
      ],
      [
        "▁idol",
        -1828.0
      ],
      [
        "▁triển",
        -1829.0
      ],
      [
        "ke",
        -1830.0
      ],
      [
        "▁kính",
        -1831.0
      ],
      [
        "▁phút",
        -1832.0
      ],
      [
        "▁gây",
        -1833.0
      ],
      [
        "▁Thiên",
        -1834.0
      ],
      [
        "▁Chứ",
        -1835.0
      ],
      [
        "▁dính",
        -1836.0
      ],
      [
        "ud",
        -1837.0
      ],
      [
        "▁lưng",
        -1838.0
      ],
      [
        "▁Nhân",
        -1839.0
      ],
      [
        "▁ghét",
        -1840.0
      ],
      [
        "▁truyền",
        -1841.0
      ],
      [
        "▁mụn",
        -1842.0
      ],
      [
        "▁giản",
        -1843.0
      ],
      [
        "▁hậu",
        -1844.0
      ],
      [
        "▁ôi",
        -1845.0
      ],
      [
        "▁luận",
        -1846.0
      ],
      [
        "▁dần",
        -1847.0
      ],
      [
        "▁ngang",
        -1848.0
      ],
      [
        "én",
        -1849.0
      ],
      [
        "▁Lại",
        -1850.0
      ],
      [
        "▁quảng",
        -1851.0
      ],
      [
        "ịt",
        -1852.0
      ],
      [
        "▁gió",
        -1853.0
      ],
      [
        "▁hiểm",
        -1854.0
      ],
      [
        "▁hóa",
        -1855.0
      ],
      [
        "▁Hoang",
        -1856.0
      ],
      [
        "▁bồ",
        -1857.0
      ],
      [
        "▁😍😍",
        -1858.0
      ],
      [
        "▁não",
        -1859.0
      ],
      [
        "▁Châu",
        -1860.0
      ],
      [
        "▁nỗi",
        -1861.0
      ],
      [
        "▁hóng",
        -1862.0
      ],
      [
        "▁xỉu",
        -1863.0
      ],
      [
        "▁đà",
        -1864.0
      ],
      [
        "▁khai",
        -1865.0
      ],
      [
        "▁Bài",
        -1866.0
      ],
      [
        "kh",
        -1867.0
      ],
      [
        "era",
        -1868.0
      ],
      [
        "úa",
        -1869.0
      ],
      [
        "▁thèm",
        -1870.0
      ],
      [
        "ur",
        -1871.0
      ],
      [
        "]]",
        -1872.0
      ],
      [
        "▁răng",
        -1873.0
      ],
      [
        "▁Về",
        -1874.0
      ],
      [
        "▁hoi",
        -1875.0
      ],
      [
        "▁tỷ",
        -1876.0
      ],
      [
        "▁ưu",
        -1877.0
      ],
      [
        "▁mượt",
        -1878.0
      ],
      [
        "▁lập",
        -1879.0
      ],
      [
        "▁Năm",
        -1880.0
      ],
      [
        "ộp",
        -1881.0
      ],
      [
        "▁lừa",
        -1882.0
      ],
      [
        "▁hoài",
        -1883.0
      ],
      [
        "▁Nga",
        -1884.0
      ],
      [
        "▁cay",
        -1885.0
      ],
      [
        ").",
        -1886.0
      ],
      [
        "▁thoải",
        -1887.0
      ],
      [
        "ly",
        -1888.0
      ],
      [
        "▁sân",
        -1889.0
      ],
      [
        "▁bò",
        -1890.0
      ],
      [
        "▁Sẽ",
        -1891.0
      ],
      [
        "▁ủa",
        -1892.0
      ],
      [
        "▁thuộc",
        -1893.0
      ],
      [
        "▁ik",
        -1894.0
      ],
      [
        "▁đk",
        -1895.0
      ],
      [
        "▁miếng",
        -1896.0
      ],
      [
        "▁ms",
        -1897.0
      ],
      [
        "▁bền",
        -1898.0
      ],
      [
        "😁😁",
        -1899.0
      ],
      [
        "▁Ánh",
        -1900.0
      ],
      [
        "▁cạnh",
        -1901.0
      ],
      [
        "▁Lâm",
        -1902.0
      ],
      [
        "▁ác",
        -1903.0
      ],
      [
        "▁Tiên",
        -1904.0
      ],
      [
        "▁Trương",
        -1905.0
      ],
      [
        "▁man",
        -1906.0
      ],
      [
        "▁sâu",
        -1907.0
      ],
      [
        "▁hoàng",
        -1908.0
      ],
      [
        "▁bl",
        -1909.0
      ],
      [
        "▁Hạnh",
        -1910.0
      ],
      [
        "😆😆",
        -1911.0
      ],
      [
        "▁lũ",
        -1912.0
      ],
      [
        "▁Lên",
        -1913.0
      ],
      [
        "▁Phải",
        -1914.0
      ],
      [
        "bo",
        -1915.0
      ],
      [
        "▁mịn",
        -1916.0
      ],
      [
        "!!!!",
        -1917.0
      ],
      [
        "▁hang",
        -1918.0
      ],
      [
        "▁Ơ",
        -1919.0
      ],
      [
        "▁Cao",
        -1920.0
      ],
      [
        "▁dep",
        -1921.0
      ],
      [
        "bs",
        -1922.0
      ],
      [
        "▁khăn",
        -1923.0
      ],
      [
        "jf",
        -1924.0
      ],
      [
        "▁ấm",
        -1925.0
      ],
      [
        "▁quý",
        -1926.0
      ],
      [
        "ahah",
        -1927.0
      ],
      [
        "▁vn",
        -1928.0
      ],
      [
        "▁long",
        -1929.0
      ],
      [
        "ụt",
        -1930.0
      ],
      [
        "▁trừ",
        -1931.0
      ],
      [
        "▁Phuong",
        -1932.0
      ],
      [
        "▁khắc",
        -1933.0
      ],
      [
        "▁nhan",
        -1934.0
      ],
      [
        "ick",
        -1935.0
      ],
      [
        "▁lệ",
        -1936.0
      ],
      [
        "▁vé",
        -1937.0
      ],
      [
        "▁can",
        -1938.0
      ],
      [
        "se",
        -1939.0
      ],
      [
        "Ng",
        -1940.0
      ],
      [
        "▁ti",
        -1941.0
      ],
      [
        "▁cr",
        -1942.0
      ],
      [
        "▁trâu",
        -1943.0
      ],
      [
        "▁phá",
        -1944.0
      ],
      [
        "▁le",
        -1945.0
      ],
      [
        "▁luật",
        -1946.0
      ],
      [
        "▁..",
        -1947.0
      ],
      [
        "▁thẳng",
        -1948.0
      ],
      [
        "▁Hồi",
        -1949.0
      ],
      [
        "▁ui",
        -1950.0
      ],
      [
        "▁nhóm",
        -1951.0
      ],
      [
        "▁dưỡng",
        -1952.0
      ],
      [
        "▁nhìu",
        -1953.0
      ],
      [
        "▁Học",
        -1954.0
      ],
      [
        "▁fb",
        -1955.0
      ],
      [
        "▁sẵn",
        -1956.0
      ],
      [
        "▁dán",
        -1957.0
      ],
      [
        "min",
        -1958.0
      ],
      [
        "://",
        -1959.0
      ],
      [
        "▁tuyển",
        -1960.0
      ],
      [
        "ce",
        -1961.0
      ],
      [
        "▁cặp",
        -1962.0
      ],
      [
        "▁ngắn",
        -1963.0
      ],
      [
        "▁phật",
        -1964.0
      ],
      [
        "og",
        -1965.0
      ],
      [
        "▁and",
        -1966.0
      ],
      [
        "▁20",
        -1967.0
      ],
      [
        "▁Hello",
        -1968.0
      ],
      [
        "▁Trinh",
        -1969.0
      ],
      [
        "68",
        -1970.0
      ],
      [
        "▁ê",
        -1971.0
      ],
      [
        "▁tắm",
        -1972.0
      ],
      [
        "▁tủ",
        -1973.0
      ],
      [
        "▁app",
        -1974.0
      ],
      [
        "▁rơi",
        -1975.0
      ],
      [
        "▁tỏ",
        -1976.0
      ],
      [
        "▁đấu",
        -1977.0
      ],
      [
        "▁Vừa",
        -1978.0
      ],
      [
        "▁Vi",
        -1979.0
      ],
      [
        "▁share",
        -1980.0
      ],
      [
        "▁ích",
        -1981.0
      ],
      [
        "▁cỡ",
        -1982.0
      ],
      [
        "▁love",
        -1983.0
      ],
      [
        "▁nguoi",
        -1984.0
      ],
      [
        "❤️❤️❤️❤️",
        -1985.0
      ],
      [
        "▁im",
        -1986.0
      ],
      [
        "▁hạ",
        -1987.0
      ],
      [
        "👍👍👍👍",
        -1988.0
      ],
      [
        "▁than",
        -1989.0
      ],
      [
        "▁tốn",
        -1990.0
      ],
      [
        "▁hại",
        -1991.0
      ],
      [
        "▁Tự",
        -1992.0
      ],
      [
        "iệng",
        -1993.0
      ],
      [
        "▁khoe",
        -1994.0
      ],
      [
        "▁lan",
        -1995.0
      ],
      [
        "ẹt",
        -1996.0
      ],
      [
        "cm",
        -1997.0
      ],
      [
        "bi",
        -1998.0
      ],
      [
        "­­",
        -1999.0
      ],
      [
        "▁Tiến",
        -2000.0
      ],
      [
        "▁day",
        -2001.0
      ],
      [
        "▁bù",
        -2002.0
      ],
      [
        "od",
        -2003.0
      ],
      [
        "▁dáng",
        -2004.0
      ],
      [
        "▁lol",
        -2005.0
      ],
      [
        "▁%",
        -2006.0
      ],
      [
        "79",
        -2007.0
      ],
      [
        "▁kẻ",
        -2008.0
      ],
      [
        "▁đợt",
        -2009.0
      ],
      [
        "▁gr",
        -2010.0
      ],
      [
        "▁rủ",
        -2011.0
      ],
      [
        "**",
        -2012.0
      ],
      [
        "ỉa",
        -2013.0
      ],
      [
        "▁thú",
        -2014.0
      ],
      [
        "ựng",
        -2015.0
      ],
      [
        "▁mì",
        -2016.0
      ],
      [
        "ttps",
        -2017.0
      ],
      [
        "tu",
        -2018.0
      ],
      [
        "▁đèn",
        -2019.0
      ],
      [
        "▁phai",
        -2020.0
      ],
      [
        "jdjd",
        -2021.0
      ],
      [
        "▁mng",
        -2022.0
      ],
      [
        "▁Ư",
        -2023.0
      ],
      [
        "▁Lu",
        -2024.0
      ],
      [
        "▁Thời",
        -2025.0
      ],
      [
        "▁Đào",
        -2026.0
      ],
      [
        "▁nhiu",
        -2027.0
      ],
      [
        "▁khí",
        -2028.0
      ],
      [
        "▁điên",
        -2029.0
      ],
      [
        "▁for",
        -2030.0
      ],
      [
        "▁chỉnh",
        -2031.0
      ],
      [
        "▁xứng",
        -2032.0
      ],
      [
        "▁trúng",
        -2033.0
      ],
      [
        "▁thuật",
        -2034.0
      ],
      [
        "▁Hoài",
        -2035.0
      ],
      [
        "▁=)))))",
        -2036.0
      ],
      [
        "▁tấm",
        -2037.0
      ],
      [
        "▁Mạnh",
        -2038.0
      ],
      [
        "ess",
        -2039.0
      ],
      [
        "▁phun",
        -2040.0
      ],
      [
        "▁lựa",
        -2041.0
      ],
      [
        "▁Cm",
        -2042.0
      ],
      [
        "▁vượt",
        -2043.0
      ],
      [
        "ơm",
        -2044.0
      ],
      [
        "▁vcl",
        -2045.0
      ],
      [
        "▁tắt",
        -2046.0
      ],
      [
        "▁lao",
        -2047.0
      ],
      [
        "▁vân",
        -2048.0
      ],
      [
        "▁nhiệm",
        -2049.0
      ],
      [
        "▁cám",
        -2050.0
      ],
      [
        "▁Mọi",
        -2051.0
      ],
      [
        "▁Đọc",
        -2052.0
      ],
      [
        "▁thả",
        -2053.0
      ],
      [
        "▁lồn",
        -2054.0
      ],
      [
        "▁thoát",
        -2055.0
      ],
      [
        "▁Là",
        -2056.0
      ],
      [
        "▁oke",
        -2057.0
      ],
      [
        "▁NG",
        -2058.0
      ],
      [
        "▁Mỗi",
        -2059.0
      ],
      [
        "▁bước",
        -2060.0
      ],
      [
        "▁hề",
        -2061.0
      ],
      [
        "▁Bác",
        -2062.0
      ],
      [
        "okok",
        -2063.0
      ],
      [
        "▁trà",
        -2064.0
      ],
      [
        "▁Ngo",
        -2065.0
      ],
      [
        "🥰🥰🥰🥰",
        -2066.0
      ],
      [
        "▁bạc",
        -2067.0
      ],
      [
        "▁Tết",
        -2068.0
      ],
      [
        "▁váy",
        -2069.0
      ],
      [
        "▁Phúc",
        -2070.0
      ],
      [
        "▁mí",
        -2071.0
      ],
      [
        "ổng",
        -2072.0
      ],
      [
        "▁KH",
        -2073.0
      ],
      [
        "▁giảng",
        -2074.0
      ],
      [
        "▁lỡ",
        -2075.0
      ],
      [
        "▁miễn",
        -2076.0
      ],
      [
        "▁Vẫn",
        -2077.0
      ],
      [
        "▁tớ",
        -2078.0
      ],
      [
        "▁dk",
        -2079.0
      ],
      [
        "▁chóng",
        -2080.0
      ],
      [
        "▁kệ",
        -2081.0
      ],
      [
        "▁phê",
        -2082.0
      ],
      [
        "▁mỏi",
        -2083.0
      ],
      [
        "▁Kiều",
        -2084.0
      ],
      [
        "▁cmn",
        -2085.0
      ],
      [
        "▁bả",
        -2086.0
      ],
      [
        "▁tù",
        -2087.0
      ],
      [
        "▁bè",
        -2088.0
      ],
      [
        "▁khen",
        -2089.0
      ],
      [
        "▁Đại",
        -2090.0
      ],
      [
        "▁Nhớ",
        -2091.0
      ],
      [
        "pper",
        -2092.0
      ],
      [
        "▁đón",
        -2093.0
      ],
      [
        "mmmm",
        -2094.0
      ],
      [
        "????",
        -2095.0
      ],
      [
        "▁lái",
        -2096.0
      ],
      [
        "▁phạt",
        -2097.0
      ],
      [
        "▁Toàn",
        -2098.0
      ],
      [
        "▁sếp",
        -2099.0
      ],
      [
        "▁tri",
        -2100.0
      ],
      [
        "▁miệng",
        -2101.0
      ],
      [
        "▁Thy",
        -2102.0
      ],
      [
        "20",
        -2103.0
      ],
      [
        "▁https",
        -2104.0
      ],
      [
        "▁nho",
        -2105.0
      ],
      [
        "▁nét",
        -2106.0
      ],
      [
        "iiiiiiii",
        -2107.0
      ],
      [
        "▁khong",
        -2108.0
      ],
      [
        "▁Quy",
        -2109.0
      ],
      [
        "▁bh",
        -2110.0
      ],
      [
        "▁Muốn",
        -2111.0
      ],
      [
        "ull",
        -2112.0
      ],
      [
        "▁hạt",
        -2113.0
      ],
      [
        "▁Â",
        -2114.0
      ],
      [
        "▁đám",
        -2115.0
      ],
      [
        "▁sở",
        -2116.0
      ],
      [
        "▁chj",
        -2117.0
      ],
      [
        "ươi",
        -2118.0
      ],
      [
        "▁trạng",
        -2119.0
      ],
      [
        "aj",
        -2120.0
      ],
      [
        "Th",
        -2121.0
      ],
      [
        "▁👍",
        -2122.0
      ],
      [
        "▁Bà",
        -2123.0
      ],
      [
        "▁dương",
        -2124.0
      ],
      [
        "▁nồi",
        -2125.0
      ],
      [
        "▁link",
        -2126.0
      ],
      [
        "▁giật",
        -2127.0
      ],
      [
        "▁cháy",
        -2128.0
      ],
      [
        "▁đạt",
        -2129.0
      ],
      [
        "▁nâng",
        -2130.0
      ],
      [
        "▁🥺",
        -2131.0
      ],
      [
        "Ph",
        -2132.0
      ],
      [
        "▁Bích",
        -2133.0
      ],
      [
        "▁Đạt",
        -2134.0
      ],
      [
        "▁đô",
        -2135.0
      ],
      [
        "▁Nhiều",
        -2136.0
      ],
      [
        "75",
        -2137.0
      ],
      [
        "49",
        -2138.0
      ],
      [
        "▁Thúy",
        -2139.0
      ],
      [
        "▁thâm",
        -2140.0
      ],
      [
        "▁ni",
        -2141.0
      ],
      [
        "▁phạm",
        -2142.0
      ],
      [
        "▁cài",
        -2143.0
      ],
      [
        "▁Thì",
        -2144.0
      ],
      [
        "▁rút",
        -2145.0
      ],
      [
        "ra",
        -2146.0
      ],
      [
        "65",
        -2147.0
      ],
      [
        "▁Vinh",
        -2148.0
      ],
      [
        "▁sướng",
        -2149.0
      ],
      [
        "▁trực",
        -2150.0
      ],
      [
        "▁Đồng",
        -2151.0
      ],
      [
        "▁???",
        -2152.0
      ],
      [
        "▁stream",
        -2153.0
      ],
      [
        "▁hương",
        -2154.0
      ],
      [
        "▁nghề",
        -2155.0
      ],
      [
        "▁Cmt",
        -2156.0
      ],
      [
        "▁Tại",
        -2157.0
      ],
      [
        "ấc",
        -2158.0
      ],
      [
        "▁khiến",
        -2159.0
      ],
      [
        "▁trưa",
        -2160.0
      ],
      [
        "▁miền",
        -2161.0
      ],
      [
        "ld",
        -2162.0
      ],
      [
        "▁Chơi",
        -2163.0
      ],
      [
        "▁Thuy",
        -2164.0
      ],
      [
        "▁nghi",
        -2165.0
      ],
      [
        "▁vũ",
        -2166.0
      ],
      [
        "▁giày",
        -2167.0
      ],
      [
        "▁hư",
        -2168.0
      ],
      [
        "▁méo",
        -2169.0
      ],
      [
        "69",
        -2170.0
      ],
      [
        "▁Thủy",
        -2171.0
      ],
      [
        "▁Lương",
        -2172.0
      ],
      [
        "▁thấp",
        -2173.0
      ],
      [
        "▁niên",
        -2174.0
      ],
      [
        "▁tiến",
        -2175.0
      ],
      [
        "ach",
        -2176.0
      ],
      [
        "▁nợ",
        -2177.0
      ],
      [
        ":)))",
        -2178.0
      ],
      [
        "▁Phong",
        -2179.0
      ],
      [
        "ĩa",
        -2180.0
      ],
      [
        "▁Ôi",
        -2181.0
      ],
      [
        "▁Đà",
        -2182.0
      ],
      [
        "▁Tao",
        -2183.0
      ],
      [
        "▁PH",
        -2184.0
      ],
      [
        "▁Số",
        -2185.0
      ],
      [
        "ươc",
        -2186.0
      ],
      [
        "45",
        -2187.0
      ],
      [
        "▁hok",
        -2188.0
      ],
      [
        "▁Uyên",
        -2189.0
      ],
      [
        "▁lỗ",
        -2190.0
      ],
      [
        "▁chớ",
        -2191.0
      ],
      [
        "🙏🙏",
        -2192.0
      ],
      [
        "▁Đình",
        -2193.0
      ],
      [
        "▁dép",
        -2194.0
      ],
      [
        "nx",
        -2195.0
      ],
      [
        "▁quanh",
        -2196.0
      ],
      [
        "▁hy",
        -2197.0
      ],
      [
        "▁abe",
        -2198.0
      ],
      [
        "▁nhung",
        -2199.0
      ],
      [
        "▁ghé",
        -2200.0
      ],
      [
        "78",
        -2201.0
      ],
      [
        "▁căng",
        -2202.0
      ],
      [
        "aaa",
        -2203.0
      ],
      [
        "▁tổng",
        -2204.0
      ],
      [
        "▁lá",
        -2205.0
      ],
      [
        "▁Bu",
        -2206.0
      ],
      [
        "▁lã",
        -2207.0
      ],
      [
        "▁thống",
        -2208.0
      ],
      [
        "▁khúc",
        -2209.0
      ],
      [
        "▁Hy",
        -2210.0
      ],
      [
        "▁:(((",
        -2211.0
      ],
      [
        "▁thang",
        -2212.0
      ],
      [
        "▁check",
        -2213.0
      ],
      [
        "▁kim",
        -2214.0
      ],
      [
        "▁Đinh",
        -2215.0
      ],
      [
        "▁hè",
        -2216.0
      ],
      [
        "oooo",
        -2217.0
      ],
      [
        "▁Sp",
        -2218.0
      ],
      [
        "all",
        -2219.0
      ],
      [
        "000",
        -2220.0
      ],
      [
        "art",
        -2221.0
      ],
      [
        "▁bấm",
        -2222.0
      ],
      [
        "▁nghị",
        -2223.0
      ],
      [
        "▁Trời",
        -2224.0
      ],
      [
        "hip",
        -2225.0
      ],
      [
        "▁mat",
        -2226.0
      ],
      [
        "▁tha",
        -2227.0
      ],
      [
        "▁thuê",
        -2228.0
      ],
      [
        "▁Cực",
        -2229.0
      ],
      [
        "▁Fan",
        -2230.0
      ],
      [
        "▁😄",
        -2231.0
      ],
      [
        "▁tránh",
        -2232.0
      ],
      [
        "▁Bố",
        -2233.0
      ],
      [
        "▁nối",
        -2234.0
      ],
      [
        "view",
        -2235.0
      ],
      [
        "ive",
        -2236.0
      ],
      [
        "▁duoc",
        -2237.0
      ],
      [
        "▁lô",
        -2238.0
      ],
      [
        "▁Viet",
        -2239.0
      ],
      [
        "ry",
        -2240.0
      ],
      [
        "▁săn",
        -2241.0
      ],
      [
        "▁sam",
        -2242.0
      ],
      [
        "▁đập",
        -2243.0
      ],
      [
        "▁khảo",
        -2244.0
      ],
      [
        "▁dùm",
        -2245.0
      ],
      [
        "▁free",
        -2246.0
      ],
      [
        "▁xăng",
        -2247.0
      ],
      [
        "ed",
        -2248.0
      ],
      [
        "▁gấp",
        -2249.0
      ],
      [
        "ill",
        -2250.0
      ],
      [
        "▁tốc",
        -2251.0
      ],
      [
        "ND",
        -2252.0
      ],
      [
        "▁Nay",
        -2253.0
      ],
      [
        "▁luon",
        -2254.0
      ],
      [
        "phone",
        -2255.0
      ],
      [
        "▁nua",
        -2256.0
      ],
      [
        "▁❤❤❤",
        -2257.0
      ],
      [
        "▁ngọt",
        -2258.0
      ],
      [
        "▁Hàn",
        -2259.0
      ],
      [
        "▁Tây",
        -2260.0
      ],
      [
        "▁đm",
        -2261.0
      ],
      [
        "▁bầu",
        -2262.0
      ],
      [
        "😊😊",
        -2263.0
      ],
      [
        "▁Những",
        -2264.0
      ],
      [
        "▁uy",
        -2265.0
      ],
      [
        "▁Ý",
        -2266.0
      ],
      [
        "▁khả",
        -2267.0
      ],
      [
        "▁Ả",
        -2268.0
      ],
      [
        "▁😘",
        -2269.0
      ],
      [
        "▁xây",
        -2270.0
      ],
      [
        "CM",
        -2271.0
      ],
      [
        "▁khuyến",
        -2272.0
      ],
      [
        "ượn",
        -2273.0
      ],
      [
        "▁Xinh",
        -2274.0
      ],
      [
        "▁Cố",
        -2275.0
      ],
      [
        "▁hào",
        -2276.0
      ],
      [
        "▁bông",
        -2277.0
      ],
      [
        "vid",
        -2278.0
      ],
      [
        "▁cư",
        -2279.0
      ],
      [
        "▁tây",
        -2280.0
      ],
      [
        "▁cc",
        -2281.0
      ],
      [
        "jh",
        -2282.0
      ],
      [
        "▁ngại",
        -2283.0
      ],
      [
        "▁mộ",
        -2284.0
      ],
      [
        "▁😭",
        -2285.0
      ],
      [
        "▁Cam",
        -2286.0
      ],
      [
        "▁bận",
        -2287.0
      ],
      [
        "▁ngược",
        -2288.0
      ],
      [
        "▁ốp",
        -2289.0
      ],
      [
        "▁dấu",
        -2290.0
      ],
      [
        "▁Hưng",
        -2291.0
      ],
      [
        "▁xóm",
        -2292.0
      ],
      [
        "qu",
        -2293.0
      ],
      [
        "!!!",
        -2294.0
      ],
      [
        "▁ao",
        -2295.0
      ],
      [
        "▁chừng",
        -2296.0
      ],
      [
        "▁Tuyết",
        -2297.0
      ],
      [
        "▁xếp",
        -2298.0
      ],
      [
        "▁đoán",
        -2299.0
      ],
      [
        "▁that",
        -2300.0
      ],
      [
        "▁ảo",
        -2301.0
      ],
      [
        "▁HN",
        -2302.0
      ],
      [
        "▁say",
        -2303.0
      ],
      [
        "▁tán",
        -2304.0
      ],
      [
        "▁Đến",
        -2305.0
      ],
      [
        "▁len",
        -2306.0
      ],
      [
        "▁Bắc",
        -2307.0
      ],
      [
        "▁dâu",
        -2308.0
      ],
      [
        "▁Quan",
        -2309.0
      ],
      [
        "▁&",
        -2310.0
      ],
      [
        "▁hô",
        -2311.0
      ],
      [
        "▁Duyên",
        -2312.0
      ],
      [
        "▁Ma",
        -2313.0
      ],
      [
        "▁khum",
        -2314.0
      ],
      [
        "▁pha",
        -2315.0
      ],
      [
        "▁cải",
        -2316.0
      ],
      [
        "▁rep",
        -2317.0
      ],
      [
        "▁phía",
        -2318.0
      ],
      [
        "▁Xe",
        -2319.0
      ],
      [
        "▁thừa",
        -2320.0
      ],
      [
        "▁Quân",
        -2321.0
      ],
      [
        "▁chấm",
        -2322.0
      ],
      [
        "▁Bên",
        -2323.0
      ],
      [
        "▁0",
        -2324.0
      ],
      [
        "▁hỗ",
        -2325.0
      ],
      [
        "▁hn",
        -2326.0
      ],
      [
        "▁dai",
        -2327.0
      ],
      [
        "▁ngành",
        -2328.0
      ],
      [
        "▁giặt",
        -2329.0
      ],
      [
        "ct",
        -2330.0
      ],
      [
        "▁Sống",
        -2331.0
      ],
      [
        "tttttttt",
        -2332.0
      ],
      [
        "▁Đoàn",
        -2333.0
      ],
      [
        "▁Da",
        -2334.0
      ],
      [
        "▁đảm",
        -2335.0
      ],
      [
        "▁cãi",
        -2336.0
      ],
      [
        "▁Thằng",
        -2337.0
      ],
      [
        "▁dõi",
        -2338.0
      ],
      [
        "▁tan",
        -2339.0
      ],
      [
        "▁hỏng",
        -2340.0
      ],
      [
        "êt",
        -2341.0
      ],
      [
        "▁Màu",
        -2342.0
      ],
      [
        "▁tươi",
        -2343.0
      ],
      [
        "▁phi",
        -2344.0
      ],
      [
        "▁Giống",
        -2345.0
      ],
      [
        "▁chở",
        -2346.0
      ],
      [
        "▁Cj",
        -2347.0
      ],
      [
        "▁vẽ",
        -2348.0
      ],
      [
        "▁admin",
        -2349.0
      ],
      [
        "▁shi",
        -2350.0
      ],
      [
        "▁it",
        -2351.0
      ],
      [
        "▁lag",
        -2352.0
      ],
      [
        "▁sóng",
        -2353.0
      ],
      [
        "▁niệm",
        -2354.0
      ],
      [
        "▁khuyên",
        -2355.0
      ],
      [
        "▁đế",
        -2356.0
      ],
      [
        "AM",
        -2357.0
      ],
      [
        "up",
        -2358.0
      ],
      [
        "▁muộn",
        -2359.0
      ],
      [
        "aka",
        -2360.0
      ],
      [
        "▁cắm",
        -2361.0
      ],
      [
        "▁góc",
        -2362.0
      ],
      [
        "▁Theo",
        -2363.0
      ],
      [
        "▁TP",
        -2364.0
      ],
      [
        "▁bát",
        -2365.0
      ],
      [
        "́t",
        -2366.0
      ],
      [
        "▁Với",
        -2367.0
      ],
      [
        "▁Lấy",
        -2368.0
      ],
      [
        "▁khoá",
        -2369.0
      ],
      [
        "aaaaaaaa",
        -2370.0
      ],
      [
        "▁Trúc",
        -2371.0
      ],
      [
        "▁Phật",
        -2372.0
      ],
      [
        "▁Lý",
        -2373.0
      ],
      [
        "▁đương",
        -2374.0
      ],
      [
        "▁sd",
        -2375.0
      ],
      [
        "▁gốc",
        -2376.0
      ],
      [
        "▁đào",
        -2377.0
      ],
      [
        ")))",
        -2378.0
      ],
      [
        "▁dục",
        -2379.0
      ],
      [
        "▁ế",
        -2380.0
      ],
      [
        "▁đùa",
        -2381.0
      ],
      [
        "▁Cả",
        -2382.0
      ],
      [
        "▁na",
        -2383.0
      ],
      [
        "▁Đăng",
        -2384.0
      ],
      [
        "▁Được",
        -2385.0
      ],
      [
        "▁đắt",
        -2386.0
      ],
      [
        "▁xuân",
        -2387.0
      ],
      [
        "ood",
        -2388.0
      ],
      [
        "▁Quần",
        -2389.0
      ],
      [
        "▁review",
        -2390.0
      ],
      [
        "😍😍😍😍",
        -2391.0
      ],
      [
        "▁van",
        -2392.0
      ],
      [
        "▁rớt",
        -2393.0
      ],
      [
        "▁😑",
        -2394.0
      ],
      [
        "▁khủng",
        -2395.0
      ],
      [
        "▁tn",
        -2396.0
      ],
      [
        "▁kênh",
        -2397.0
      ],
      [
        "▁cty",
        -2398.0
      ],
      [
        "▁biểu",
        -2399.0
      ],
      [
        "ter",
        -2400.0
      ],
      [
        "xi",
        -2401.0
      ],
      [
        "▁thê",
        -2402.0
      ],
      [
        "▁đựng",
        -2403.0
      ],
      [
        "▁tien",
        -2404.0
      ],
      [
        "▁trăm",
        -2405.0
      ],
      [
        "▁que",
        -2406.0
      ],
      [
        "▁:<",
        -2407.0
      ],
      [
        "▁niềm",
        -2408.0
      ],
      [
        "▁Dũng",
        -2409.0
      ],
      [
        "▁đạp",
        -2410.0
      ],
      [
        "▁pl",
        -2411.0
      ],
      [
        "xx",
        -2412.0
      ],
      [
        "🤣🤣🤣",
        -2413.0
      ],
      [
        "▁Liên",
        -2414.0
      ],
      [
        "Ch",
        -2415.0
      ],
      [
        "▁Ú",
        -2416.0
      ],
      [
        "▁Trâm",
        -2417.0
      ],
      [
        "▁thở",
        -2418.0
      ],
      [
        "▁dang",
        -2419.0
      ],
      [
        "▁dẻ",
        -2420.0
      ],
      [
        "▁dì",
        -2421.0
      ],
      [
        "▁😭😭",
        -2422.0
      ],
      [
        "▁vả",
        -2423.0
      ],
      [
        "▁Trịnh",
        -2424.0
      ],
      [
        "▁thưởng",
        -2425.0
      ],
      [
        "▁pro",
        -2426.0
      ],
      [
        "▁Thắng",
        -2427.0
      ],
      [
        "www",
        -2428.0
      ],
      [
        "▁cấm",
        -2429.0
      ],
      [
        "▁cánh",
        -2430.0
      ],
      [
        "▁vỡ",
        -2431.0
      ],
      [
        "▁bởi",
        -2432.0
      ],
      [
        "▁Dù",
        -2433.0
      ],
      [
        "▁dạng",
        -2434.0
      ],
      [
        "▁vùng",
        -2435.0
      ],
      [
        "▁dụ",
        -2436.0
      ],
      [
        "ost",
        -2437.0
      ],
      [
        "▁tùng",
        -2438.0
      ],
      [
        "▁đam",
        -2439.0
      ],
      [
        "vi",
        -2440.0
      ],
      [
        "▁Đen",
        -2441.0
      ],
      [
        "▁Dùng",
        -2442.0
      ],
      [
        "▁tộc",
        -2443.0
      ],
      [
        "▁nền",
        -2444.0
      ],
      [
        "98",
        -2445.0
      ],
      [
        "▁lướt",
        -2446.0
      ],
      [
        "▁xoá",
        -2447.0
      ],
      [
        "▁Trân",
        -2448.0
      ],
      [
        "▁al",
        -2449.0
      ],
      [
        "▁Hãy",
        -2450.0
      ],
      [
        ":)",
        -2451.0
      ],
      [
        "ard",
        -2452.0
      ],
      [
        "▁Biết",
        -2453.0
      ],
      [
        "▁Gấu",
        -2454.0
      ],
      [
        "▁trần",
        -2455.0
      ],
      [
        "▁kk",
        -2456.0
      ],
      [
        "▁🤔",
        -2457.0
      ],
      [
        "▁Dễ",
        -2458.0
      ],
      [
        "▁Coi",
        -2459.0
      ],
      [
        "▁tàu",
        -2460.0
      ],
      [
        "▁Hân",
        -2461.0
      ],
      [
        "▁dặn",
        -2462.0
      ],
      [
        "▁Hùng",
        -2463.0
      ],
      [
        "▁@@",
        -2464.0
      ],
      [
        "hhhhhhhh",
        -2465.0
      ],
      [
        "▁chợ",
        -2466.0
      ],
      [
        "▁đảo",
        -2467.0
      ],
      [
        "▁acc",
        -2468.0
      ],
      [
        "▁đức",
        -2469.0
      ],
      [
        "▁phiên",
        -2470.0
      ],
      [
        "▁ngắm",
        -2471.0
      ],
      [
        "▁❤️",
        -2472.0
      ],
      [
        "▁OK",
        -2473.0
      ],
      [
        "▁dư",
        -2474.0
      ],
      [
        "▁nhàng",
        -2475.0
      ],
      [
        "▁☺",
        -2476.0
      ],
      [
        "▁vây",
        -2477.0
      ],
      [
        "▁dở",
        -2478.0
      ],
      [
        "ment",
        -2479.0
      ],
      [
        "▁Mít",
        -2480.0
      ],
      [
        "fe",
        -2481.0
      ],
      [
        "▁Tân",
        -2482.0
      ],
      [
        "▁full",
        -2483.0
      ],
      [
        "▁op",
        -2484.0
      ],
      [
        "▁zai",
        -2485.0
      ],
      [
        "ướp",
        -2486.0
      ],
      [
        "▁Câu",
        -2487.0
      ],
      [
        "▁Lam",
        -2488.0
      ],
      [
        "hihi",
        -2489.0
      ],
      [
        "▁:3",
        -2490.0
      ],
      [
        "▁tờ",
        -2491.0
      ],
      [
        "▁sk",
        -2492.0
      ],
      [
        "▁ràng",
        -2493.0
      ],
      [
        "▁tam",
        -2494.0
      ],
      [
        "▁Đông",
        -2495.0
      ],
      [
        "▁tôm",
        -2496.0
      ],
      [
        "▁100",
        -2497.0
      ],
      [
        "▁sóc",
        -2498.0
      ],
      [
        "ri",
        -2499.0
      ],
      [
        "48",
        -2500.0
      ],
      [
        "NT",
        -2501.0
      ],
      [
        "▁hat",
        -2502.0
      ],
      [
        "▁Trọng",
        -2503.0
      ],
      [
        "▁đãi",
        -2504.0
      ],
      [
        "▁set",
        -2505.0
      ],
      [
        "▁test",
        -2506.0
      ],
      [
        "▁goi",
        -2507.0
      ],
      [
        "▁lễ",
        -2508.0
      ],
      [
        "▁tôn",
        -2509.0
      ],
      [
        "▁Vu",
        -2510.0
      ],
      [
        "yyyy",
        -2511.0
      ],
      [
        "),",
        -2512.0
      ],
      [
        "uyen",
        -2513.0
      ],
      [
        "▁éo",
        -2514.0
      ],
      [
        "jc",
        -2515.0
      ],
      [
        "▁xì",
        -2516.0
      ],
      [
        "▁khoa",
        -2517.0
      ],
      [
        "▁đầm",
        -2518.0
      ],
      [
        "▁rảnh",
        -2519.0
      ],
      [
        ".5",
        -2520.0
      ],
      [
        "▁hí",
        -2521.0
      ],
      [
        "▁giết",
        -2522.0
      ],
      [
        "▁mục",
        -2523.0
      ],
      [
        "▁nọ",
        -2524.0
      ],
      [
        "▁Cầu",
        -2525.0
      ],
      [
        "▁binh",
        -2526.0
      ],
      [
        "▁Cường",
        -2527.0
      ],
      [
        "▁hot",
        -2528.0
      ],
      [
        "▁mốt",
        -2529.0
      ],
      [
        "▁canh",
        -2530.0
      ],
      [
        "▁vu",
        -2531.0
      ],
      [
        "▁ip",
        -2532.0
      ],
      [
        "▁Bi",
        -2533.0
      ],
      [
        "▁Tình",
        -2534.0
      ],
      [
        "▁Sài",
        -2535.0
      ],
      [
        "ark",
        -2536.0
      ],
      [
        "▁fi",
        -2537.0
      ],
      [
        "▁dàng",
        -2538.0
      ],
      [
        "▁code",
        -2539.0
      ],
      [
        "▁of",
        -2540.0
      ],
      [
        "▁đậu",
        -2541.0
      ],
      [
        "▁tỉ",
        -2542.0
      ],
      [
        "ush",
        -2543.0
      ],
      [
        "▁mờ",
        -2544.0
      ],
      [
        "▁trứng",
        -2545.0
      ],
      [
        "OD",
        -2546.0
      ],
      [
        "▁ngọc",
        -2547.0
      ],
      [
        "▁Lưu",
        -2548.0
      ],
      [
        "▁hôi",
        -2549.0
      ],
      [
        "▁Loan",
        -2550.0
      ],
      [
        "▁😔",
        -2551.0
      ],
      [
        "▁thí",
        -2552.0
      ],
      [
        "facebook",
        -2553.0
      ],
      [
        "▁Độ",
        -2554.0
      ],
      [
        "▁lau",
        -2555.0
      ],
      [
        "▁ấn",
        -2556.0
      ],
      [
        "▁Phú",
        -2557.0
      ],
      [
        "▁truyện",
        -2558.0
      ],
      [
        "▁song",
        -2559.0
      ],
      [
        "▁bê",
        -2560.0
      ],
      [
        "mi",
        -2561.0
      ],
      [
        "▁hữu",
        -2562.0
      ],
      [
        "▁Má",
        -2563.0
      ],
      [
        "▁bì",
        -2564.0
      ],
      [
        "▁To",
        -2565.0
      ],
      [
        "▁thuong",
        -2566.0
      ],
      [
        "10",
        -2567.0
      ],
      [
        "▁ngôn",
        -2568.0
      ],
      [
        "▁tung",
        -2569.0
      ],
      [
        "alo",
        -2570.0
      ],
      [
        "♥️",
        -2571.0
      ],
      [
        "▁ki",
        -2572.0
      ],
      [
        "▁Van",
        -2573.0
      ],
      [
        "))))))))",
        -2574.0
      ],
      [
        "nnnnnnnn",
        -2575.0
      ],
      [
        "▁gu",
        -2576.0
      ],
      [
        "▁tố",
        -2577.0
      ],
      [
        "▁xuyên",
        -2578.0
      ],
      [
        "▁Oanh",
        -2579.0
      ],
      [
        "▁Hong",
        -2580.0
      ],
      [
        "jx",
        -2581.0
      ],
      [
        "ock",
        -2582.0
      ],
      [
        "▁😃",
        -2583.0
      ],
      [
        "▁chữa",
        -2584.0
      ],
      [
        "▁Trước",
        -2585.0
      ],
      [
        "▁dao",
        -2586.0
      ],
      [
        "rr",
        -2587.0
      ],
      [
        "▁Tiền",
        -2588.0
      ],
      [
        "ht",
        -2589.0
      ],
      [
        "▁ngã",
        -2590.0
      ],
      [
        "▁😒",
        -2591.0
      ],
      [
        "▁Gh",
        -2592.0
      ],
      [
        "▁vao",
        -2593.0
      ],
      [
        "▁béo",
        -2594.0
      ],
      [
        "▁Su",
        -2595.0
      ],
      [
        "▁chiếu",
        -2596.0
      ],
      [
        "pe",
        -2597.0
      ],
      [
        "ym",
        -2598.0
      ],
      [
        "▁kkkk",
        -2599.0
      ],
      [
        "▁tẩy",
        -2600.0
      ],
      [
        "▁Khoa",
        -2601.0
      ],
      [
        "▁cs",
        -2602.0
      ],
      [
        "▁nạp",
        -2603.0
      ],
      [
        "▁đuổi",
        -2604.0
      ],
      [
        "star",
        -2605.0
      ],
      [
        "ina",
        -2606.0
      ],
      [
        "▁nhiễm",
        -2607.0
      ],
      [
        "▁thich",
        -2608.0
      ],
      [
        "▁lộn",
        -2609.0
      ],
      [
        "▁Tối",
        -2610.0
      ],
      [
        "▁Cần",
        -2611.0
      ],
      [
        "▁is",
        -2612.0
      ],
      [
        "AN",
        -2613.0
      ],
      [
        "▁mẽ",
        -2614.0
      ],
      [
        "▁Ra",
        -2615.0
      ],
      [
        "▁gắn",
        -2616.0
      ],
      [
        "▁bọc",
        -2617.0
      ],
      [
        "ann",
        -2618.0
      ],
      [
        "▁Tài",
        -2619.0
      ],
      [
        "%3",
        -2620.0
      ],
      [
        "▁bẩn",
        -2621.0
      ],
      [
        "▁lộ",
        -2622.0
      ],
      [
        "jsjs",
        -2623.0
      ],
      [
        "ầng",
        -2624.0
      ],
      [
        "▁ỉa",
        -2625.0
      ],
      [
        "▁online",
        -2626.0
      ],
      [
        "dy",
        -2627.0
      ],
      [
        "▁thấm",
        -2628.0
      ],
      [
        "▁Be",
        -2629.0
      ],
      [
        "▁show",
        -2630.0
      ],
      [
        "▁Chú",
        -2631.0
      ],
      [
        "▁thy",
        -2632.0
      ],
      [
        "▁eo",
        -2633.0
      ],
      [
        "▁Tưởng",
        -2634.0
      ],
      [
        "▁trụ",
        -2635.0
      ],
      [
        "pppppppp",
        -2636.0
      ],
      [
        "▁camera",
        -2637.0
      ],
      [
        "▁đáp",
        -2638.0
      ],
      [
        "▁nv",
        -2639.0
      ],
      [
        "ớp",
        -2640.0
      ],
      [
        "▁quản",
        -2641.0
      ],
      [
        "ada",
        -2642.0
      ],
      [
        "▁bảng",
        -2643.0
      ],
      [
        "▁Phim",
        -2644.0
      ],
      [
        "▁thai",
        -2645.0
      ],
      [
        "▁doanh",
        -2646.0
      ],
      [
        "▁kiệm",
        -2647.0
      ],
      [
        "▁lẻ",
        -2648.0
      ],
      [
        "▁gánh",
        -2649.0
      ],
      [
        "▁xảy",
        -2650.0
      ],
      [
        "▁hiền",
        -2651.0
      ],
      [
        "▁cờ",
        -2652.0
      ],
      [
        "▁phủ",
        -2653.0
      ],
      [
        "▁Chí",
        -2654.0
      ],
      [
        "▁sông",
        -2655.0
      ],
      [
        "▁sz",
        -2656.0
      ],
      [
        "▁shipper",
        -2657.0
      ],
      [
        "▁Hữu",
        -2658.0
      ],
      [
        "▁alo",
        -2659.0
      ],
      [
        "▁ro",
        -2660.0
      ],
      [
        "▁MV",
        -2661.0
      ],
      [
        "▁65",
        -2662.0
      ],
      [
        "▁hoc",
        -2663.0
      ],
      [
        "▁Khanh",
        -2664.0
      ],
      [
        "▁rat",
        -2665.0
      ],
      [
        "▁cong",
        -2666.0
      ],
      [
        "▁dừng",
        -2667.0
      ],
      [
        "▁Sam",
        -2668.0
      ],
      [
        "▁nguồn",
        -2669.0
      ],
      [
        "▁ns",
        -2670.0
      ],
      [
        "to",
        -2671.0
      ],
      [
        "▁95",
        -2672.0
      ],
      [
        "▁Này",
        -2673.0
      ],
      [
        "▁cap",
        -2674.0
      ],
      [
        "▁Chúng",
        -2675.0
      ],
      [
        "▁mật",
        -2676.0
      ],
      [
        "▁tiểu",
        -2677.0
      ],
      [
        "▁chay",
        -2678.0
      ],
      [
        "▁🙃",
        -2679.0
      ],
      [
        "IT",
        -2680.0
      ],
      [
        "▁cac",
        -2681.0
      ],
      [
        "▁min",
        -2682.0
      ],
      [
        "▁nhạt",
        -2683.0
      ],
      [
        "▁nhậu",
        -2684.0
      ],
      [
        "▁rap",
        -2685.0
      ],
      [
        "▁Sáng",
        -2686.0
      ],
      [
        "▁sung",
        -2687.0
      ],
      [
        "Tr",
        -2688.0
      ],
      [
        "▁bai",
        -2689.0
      ],
      [
        "▁đep",
        -2690.0
      ],
      [
        "▁ánh",
        -2691.0
      ],
      [
        "OT",
        -2692.0
      ],
      [
        "▁khóa",
        -2693.0
      ],
      [
        "▁đấm",
        -2694.0
      ],
      [
        "😂😂😂",
        -2695.0
      ],
      [
        "▁nyc",
        -2696.0
      ],
      [
        "▁trend",
        -2697.0
      ],
      [
        "▁Huynh",
        -2698.0
      ],
      [
        "▁tàn",
        -2699.0
      ],
      [
        "▁chuột",
        -2700.0
      ],
      [
        "▁vực",
        -2701.0
      ],
      [
        "▁dô",
        -2702.0
      ],
      [
        "▁địch",
        -2703.0
      ],
      [
        "▁Ca",
        -2704.0
      ],
      [
        "❤❤❤❤",
        -2705.0
      ],
      [
        "▁Mặt",
        -2706.0
      ],
      [
        "▁ngoan",
        -2707.0
      ],
      [
        "▁lẫn",
        -2708.0
      ],
      [
        "▁hứng",
        -2709.0
      ],
      [
        "▁chảy",
        -2710.0
      ],
      [
        "▁QU",
        -2711.0
      ],
      [
        "▁hảo",
        -2712.0
      ],
      [
        "▁97",
        -2713.0
      ],
      [
        "▁pr",
        -2714.0
      ],
      [
        "▁mây",
        -2715.0
      ],
      [
        "▁rôi",
        -2716.0
      ],
      [
        "▁phết",
        -2717.0
      ],
      [
        "▁cày",
        -2718.0
      ],
      [
        "▁Mo",
        -2719.0
      ],
      [
        "▁dọn",
        -2720.0
      ],
      [
        "▁thao",
        -2721.0
      ],
      [
        "▁or",
        -2722.0
      ],
      [
        "▁ái",
        -2723.0
      ],
      [
        "▁bí",
        -2724.0
      ],
      [
        "▁lay",
        -2725.0
      ],
      [
        "▁chang",
        -2726.0
      ],
      [
        "▁băng",
        -2727.0
      ],
      [
        "ớc",
        -2728.0
      ],
      [
        "▁'",
        -2729.0
      ],
      [
        "▁sn",
        -2730.0
      ],
      [
        "▁Hóng",
        -2731.0
      ],
      [
        "▁Vương",
        -2732.0
      ],
      [
        "▁ép",
        -2733.0
      ],
      [
        "▁mot",
        -2734.0
      ],
      [
        "▁nhựa",
        -2735.0
      ],
      [
        "▁ghép",
        -2736.0
      ],
      [
        "hdhd",
        -2737.0
      ],
      [
        "▁Trà",
        -2738.0
      ],
      [
        "👍🏻",
        -2739.0
      ],
      [
        "ợn",
        -2740.0
      ],
      [
        "▁đài",
        -2741.0
      ],
      [
        "▁GI",
        -2742.0
      ],
      [
        "▁châu",
        -2743.0
      ],
      [
        "▁hàn",
        -2744.0
      ],
      [
        "▁tròn",
        -2745.0
      ],
      [
        "▁tướng",
        -2746.0
      ],
      [
        "▁kỉ",
        -2747.0
      ],
      [
        "▁😘😘",
        -2748.0
      ],
      [
        "▁Tặng",
        -2749.0
      ],
      [
        "▁The",
        -2750.0
      ],
      [
        "ưỡi",
        -2751.0
      ],
      [
        "▁đoàn",
        -2752.0
      ],
      [
        "▁Cám",
        -2753.0
      ],
      [
        "▁Kho",
        -2754.0
      ],
      [
        "▁seal",
        -2755.0
      ],
      [
        "▁vo",
        -2756.0
      ],
      [
        "▁xả",
        -2757.0
      ],
      [
        "ail",
        -2758.0
      ],
      [
        "▁Nhận",
        -2759.0
      ],
      [
        "▁trân",
        -2760.0
      ],
      [
        "▁dắt",
        -2761.0
      ],
      [
        "▁ẻ",
        -2762.0
      ],
      [
        "@@",
        -2763.0
      ],
      [
        "▁khịa",
        -2764.0
      ],
      [
        "hy",
        -2765.0
      ],
      [
        "▁Diệu",
        -2766.0
      ],
      [
        "▁SG",
        -2767.0
      ],
      [
        "ew",
        -2768.0
      ],
      [
        "▁chúa",
        -2769.0
      ],
      [
        "▁doi",
        -2770.0
      ],
      [
        "▁cướp",
        -2771.0
      ],
      [
        "▁căn",
        -2772.0
      ],
      [
        "der",
        -2773.0
      ],
      [
        "sung",
        -2774.0
      ],
      [
        "▁Túi",
        -2775.0
      ],
      [
        "▁Chuẩn",
        -2776.0
      ],
      [
        "▁vua",
        -2777.0
      ],
      [
        "▁ruột",
        -2778.0
      ],
      [
        "▁thiệu",
        -2779.0
      ],
      [
        "🥲🥲",
        -2780.0
      ],
      [
        "▁gối",
        -2781.0
      ],
      [
        "▁add",
        -2782.0
      ],
      [
        "/7",
        -2783.0
      ],
      [
        "▁khám",
        -2784.0
      ],
      [
        "▁😏",
        -2785.0
      ],
      [
        "▁trộm",
        -2786.0
      ],
      [
        "▁sánh",
        -2787.0
      ],
      [
        "▁gđ",
        -2788.0
      ],
      [
        "bx",
        -2789.0
      ],
      [
        "▁tru",
        -2790.0
      ],
      [
        "▁Cẩm",
        -2791.0
      ],
      [
        "▁tý",
        -2792.0
      ],
      [
        "ul",
        -2793.0
      ],
      [
        "▁nổ",
        -2794.0
      ],
      [
        "▁lặng",
        -2795.0
      ],
      [
        "▁bụi",
        -2796.0
      ],
      [
        "ifi",
        -2797.0
      ],
      [
        "▁tắc",
        -2798.0
      ],
      [
        "▁cắn",
        -2799.0
      ],
      [
        "▁Ban",
        -2800.0
      ],
      [
        "▁tiêm",
        -2801.0
      ],
      [
        "▁nghiêm",
        -2802.0
      ],
      [
        "▁ngáo",
        -2803.0
      ],
      [
        "▁am",
        -2804.0
      ],
      [
        "▁nắm",
        -2805.0
      ],
      [
        "▁chim",
        -2806.0
      ],
      [
        "▁biet",
        -2807.0
      ],
      [
        "▁mac",
        -2808.0
      ],
      [
        "▁hiếu",
        -2809.0
      ],
      [
        "▁nhạy",
        -2810.0
      ],
      [
        "▁nút",
        -2811.0
      ],
      [
        "▁thăm",
        -2812.0
      ],
      [
        "▁giang",
        -2813.0
      ],
      [
        "▁giận",
        -2814.0
      ],
      [
        "▁Bo",
        -2815.0
      ],
      [
        "▁mại",
        -2816.0
      ],
      [
        "▁ám",
        -2817.0
      ],
      [
        "▁sương",
        -2818.0
      ],
      [
        "▁*",
        -2819.0
      ],
      [
        "ky",
        -2820.0
      ],
      [
        "▁hủ",
        -2821.0
      ],
      [
        "co",
        -2822.0
      ],
      [
        "▁rác",
        -2823.0
      ],
      [
        "▁Thao",
        -2824.0
      ],
      [
        "▁kèo",
        -2825.0
      ],
      [
        "▁fl",
        -2826.0
      ],
      [
        "je",
        -2827.0
      ],
      [
        "................",
        -2828.0
      ],
      [
        "▁Đồ",
        -2829.0
      ],
      [
        "▁ẩm",
        -2830.0
      ],
      [
        "▁45",
        -2831.0
      ],
      [
        "▁mượn",
        -2832.0
      ],
      [
        "▁un",
        -2833.0
      ],
      [
        "▁🤧",
        -2834.0
      ],
      [
        "▁nhánh",
        -2835.0
      ],
      [
        "▁lon",
        -2836.0
      ],
      [
        "▁sl",
        -2837.0
      ],
      [
        "▁cf",
        -2838.0
      ],
      [
        "😅😅",
        -2839.0
      ],
      [
        "▁quang",
        -2840.0
      ],
      [
        "▁lây",
        -2841.0
      ],
      [
        "▁:'",
        -2842.0
      ],
      [
        "▁tịch",
        -2843.0
      ],
      [
        "ms",
        -2844.0
      ],
      [
        "▁gai",
        -2845.0
      ],
      [
        "▁Mã",
        -2846.0
      ],
      [
        "▁nát",
        -2847.0
      ],
      [
        "▁Đáng",
        -2848.0
      ],
      [
        "kkkkkkkkkkkkkkkk",
        -2849.0
      ],
      [
        "▁nma",
        -2850.0
      ],
      [
        "▁Cl",
        -2851.0
      ],
      [
        "▁thánh",
        -2852.0
      ],
      [
        "▁qá",
        -2853.0
      ],
      [
        "▁Sang",
        -2854.0
      ],
      [
        "▁dã",
        -2855.0
      ],
      [
        "▁dựng",
        -2856.0
      ],
      [
        "▁Chả",
        -2857.0
      ],
      [
        "▁Tất",
        -2858.0
      ],
      [
        "▁muon",
        -2859.0
      ],
      [
        "▁làng",
        -2860.0
      ],
      [
        "▁Quả",
        -2861.0
      ],
      [
        "▁Vào",
        -2862.0
      ],
      [
        "▁Ước",
        -2863.0
      ],
      [
        "gggggggg",
        -2864.0
      ],
      [
        "▁hehe",
        -2865.0
      ],
      [
        "ore",
        -2866.0
      ],
      [
        "bdbd",
        -2867.0
      ],
      [
        "▁den",
        -2868.0
      ],
      [
        "▁nguyện",
        -2869.0
      ],
      [
        "▁hon",
        -2870.0
      ],
      [
        "▁quận",
        -2871.0
      ],
      [
        "▁trốn",
        -2872.0
      ],
      [
        "▁kb",
        -2873.0
      ],
      [
        "▁VI",
        -2874.0
      ],
      [
        "▁thề",
        -2875.0
      ],
      [
        "▁dr",
        -2876.0
      ],
      [
        "▁said",
        -2877.0
      ],
      [
        "con",
        -2878.0
      ],
      [
        "▁nốt",
        -2879.0
      ],
      [
        "▁Thay",
        -2880.0
      ],
      [
        "hs",
        -2881.0
      ],
      [
        "nhưng",
        -2882.0
      ],
      [
        "▁Thuỳ",
        -2883.0
      ],
      [
        "▁đươc",
        -2884.0
      ],
      [
        "▁bão",
        -2885.0
      ],
      [
        "▁loa",
        -2886.0
      ],
      [
        "▁mún",
        -2887.0
      ],
      [
        "▁lôi",
        -2888.0
      ],
      [
        "▁heo",
        -2889.0
      ],
      [
        "▁Duong",
        -2890.0
      ],
      [
        "▁tik",
        -2891.0
      ],
      [
        "▁lộc",
        -2892.0
      ],
      [
        "▁trôi",
        -2893.0
      ],
      [
        "isa",
        -2894.0
      ],
      [
        "▁luyện",
        -2895.0
      ],
      [
        "▁Qua",
        -2896.0
      ],
      [
        "▁hấp",
        -2897.0
      ],
      [
        "▁lượt",
        -2898.0
      ],
      [
        "▁chăng",
        -2899.0
      ],
      [
        "▁ngươi",
        -2900.0
      ],
      [
        "ind",
        -2901.0
      ],
      [
        "▁bột",
        -2902.0
      ],
      [
        "__",
        -2903.0
      ],
      [
        "▁Mặc",
        -2904.0
      ],
      [
        "▁chuyến",
        -2905.0
      ],
      [
        "▁bức",
        -2906.0
      ],
      [
        "▁kỷ",
        -2907.0
      ],
      [
        "▁sơn",
        -2908.0
      ],
      [
        "▁rau",
        -2909.0
      ],
      [
        "▁kiếp",
        -2910.0
      ],
      [
        "▁ủ",
        -2911.0
      ],
      [
        "▁ngầu",
        -2912.0
      ],
      [
        "64",
        -2913.0
      ],
      [
        "▁=]]",
        -2914.0
      ],
      [
        "▁Đó",
        -2915.0
      ],
      [
        "▁mập",
        -2916.0
      ],
      [
        "ime",
        -2917.0
      ],
      [
        "▁bia",
        -2918.0
      ],
      [
        "▁hoà",
        -2919.0
      ],
      [
        "▁dơ",
        -2920.0
      ],
      [
        "▁Ta",
        -2921.0
      ],
      [
        "▁táo",
        -2922.0
      ],
      [
        "▁Sinh",
        -2923.0
      ],
      [
        "▁suất",
        -2924.0
      ],
      [
        "iep",
        -2925.0
      ],
      [
        "tb",
        -2926.0
      ],
      [
        "▁khởi",
        -2927.0
      ],
      [
        "▁het",
        -2928.0
      ],
      [
        "▁đống",
        -2929.0
      ],
      [
        "cn",
        -2930.0
      ],
      [
        "▁muôn",
        -2931.0
      ],
      [
        "▁gạo",
        -2932.0
      ],
      [
        "▁hp",
        -2933.0
      ],
      [
        "▁tát",
        -2934.0
      ],
      [
        "▁ngăn",
        -2935.0
      ],
      [
        "▁Hết",
        -2936.0
      ],
      [
        "▁ngữ",
        -2937.0
      ],
      [
        "▁crush",
        -2938.0
      ],
      [
        "▁đói",
        -2939.0
      ],
      [
        "▁Diễm",
        -2940.0
      ],
      [
        "29",
        -2941.0
      ],
      [
        "▁dưng",
        -2942.0
      ],
      [
        "▁Bản",
        -2943.0
      ],
      [
        "▁ghế",
        -2944.0
      ],
      [
        "▁Chính",
        -2945.0
      ],
      [
        "▁nạ",
        -2946.0
      ],
      [
        "▁trễ",
        -2947.0
      ],
      [
        "▁dẹp",
        -2948.0
      ],
      [
        "▁mối",
        -2949.0
      ],
      [
        "xy",
        -2950.0
      ],
      [
        "▁mỡ",
        -2951.0
      ],
      [
        "▁hải",
        -2952.0
      ],
      [
        "▁chặt",
        -2953.0
      ],
      [
        "▁post",
        -2954.0
      ],
      [
        "▁Ảnh",
        -2955.0
      ],
      [
        "▁Quyên",
        -2956.0
      ],
      [
        "▁>",
        -2957.0
      ],
      [
        "▁vầy",
        -2958.0
      ],
      [
        "▁À",
        -2959.0
      ],
      [
        "▁Sợ",
        -2960.0
      ],
      [
        "▁ròi",
        -2961.0
      ],
      [
        "▁non",
        -2962.0
      ],
      [
        "▁đậm",
        -2963.0
      ],
      [
        "ace",
        -2964.0
      ],
      [
        "▁Chủ",
        -2965.0
      ],
      [
        "▁Du",
        -2966.0
      ],
      [
        "▁cấu",
        -2967.0
      ],
      [
        "▁manh",
        -2968.0
      ],
      [
        "▁bày",
        -2969.0
      ],
      [
        "▁ngàn",
        -2970.0
      ],
      [
        "la",
        -2971.0
      ],
      [
        "▁dz",
        -2972.0
      ],
      [
        "▁thùng",
        -2973.0
      ],
      [
        "▁trì",
        -2974.0
      ],
      [
        "▁phận",
        -2975.0
      ],
      [
        "▁TI",
        -2976.0
      ],
      [
        "▁nhở",
        -2977.0
      ],
      [
        "uyễn",
        -2978.0
      ],
      [
        "ÔNG",
        -2979.0
      ],
      [
        "▁vía",
        -2980.0
      ],
      [
        "▁đít",
        -2981.0
      ],
      [
        "▁lắng",
        -2982.0
      ],
      [
        "▁yeu",
        -2983.0
      ],
      [
        "▁xung",
        -2984.0
      ],
      [
        "▁ser",
        -2985.0
      ],
      [
        "ÊN",
        -2986.0
      ],
      [
        "▁Tốt",
        -2987.0
      ],
      [
        "Nj",
        -2988.0
      ],
      [
        "zzzz",
        -2989.0
      ],
      [
        "▁RM",
        -2990.0
      ],
      [
        "▁So",
        -2991.0
      ],
      [
        "😄😄",
        -2992.0
      ],
      [
        "ớn",
        -2993.0
      ],
      [
        "▁bắc",
        -2994.0
      ],
      [
        "▁dan",
        -2995.0
      ],
      [
        "▁Ninh",
        -2996.0
      ],
      [
        "▁lẹ",
        -2997.0
      ],
      [
        "▁ôn",
        -2998.0
      ],
      [
        "▁55",
        -2999.0
      ],
      [
        "̀i",
        -3000.0
      ],
      [
        "▁nàng",
        -3001.0
      ],
      [
        "▁lót",
        -3002.0
      ],
      [
        "▁Đm",
        -3003.0
      ],
      [
        "▁Nhạc",
        -3004.0
      ],
      [
        "ho",
        -3005.0
      ],
      [
        "▁dm",
        -3006.0
      ],
      [
        "▁lì",
        -3007.0
      ],
      [
        "▁hở",
        -3008.0
      ],
      [
        "▁Lộc",
        -3009.0
      ],
      [
        "▁Tuyệt",
        -3010.0
      ],
      [
        "▁thỏ",
        -3011.0
      ],
      [
        "ko",
        -3012.0
      ],
      [
        "▁tầng",
        -3013.0
      ],
      [
        "hhh",
        -3014.0
      ],
      [
        "▁hs",
        -3015.0
      ],
      [
        "▁Hiện",
        -3016.0
      ],
      [
        "▁tím",
        -3017.0
      ],
      [
        "ùn",
        -3018.0
      ],
      [
        "▁as",
        -3019.0
      ],
      [
        "▁nghiện",
        -3020.0
      ],
      [
        "▁15",
        -3021.0
      ],
      [
        "▁tem",
        -3022.0
      ],
      [
        "▁khôn",
        -3023.0
      ],
      [
        "ượu",
        -3024.0
      ],
      [
        "▁đẳng",
        -3025.0
      ],
      [
        "▁chs",
        -3026.0
      ],
      [
        "67",
        -3027.0
      ],
      [
        "▁tk",
        -3028.0
      ],
      [
        "▁trầm",
        -3029.0
      ],
      [
        "▁vỏ",
        -3030.0
      ],
      [
        "▁huynh",
        -3031.0
      ],
      [
        "▁lười",
        -3032.0
      ],
      [
        "ort",
        -3033.0
      ],
      [
        "▁choi",
        -3034.0
      ],
      [
        "▁In",
        -3035.0
      ],
      [
        "▁thảo",
        -3036.0
      ],
      [
        "▁Phát",
        -3037.0
      ],
      [
        "ue",
        -3038.0
      ],
      [
        "▁pa",
        -3039.0
      ],
      [
        "▁Tính",
        -3040.0
      ],
      [
        "có",
        -3041.0
      ],
      [
        "▁đẩy",
        -3042.0
      ],
      [
        "▁dịp",
        -3043.0
      ],
      [
        "▁Ship",
        -3044.0
      ],
      [
        "▁sa",
        -3045.0
      ],
      [
        "▁La",
        -3046.0
      ],
      [
        "­­­­",
        -3047.0
      ],
      [
        "▁bô",
        -3048.0
      ],
      [
        "▁ong",
        -3049.0
      ],
      [
        "▁lãnh",
        -3050.0
      ],
      [
        "▁hoang",
        -3051.0
      ],
      [
        "▁Lâu",
        -3052.0
      ],
      [
        "▁Tên",
        -3053.0
      ],
      [
        "▁hổ",
        -3054.0
      ],
      [
        "▁đỗ",
        -3055.0
      ],
      [
        "▁hoạ",
        -3056.0
      ],
      [
        "▁Dần",
        -3057.0
      ],
      [
        "▁vinh",
        -3058.0
      ],
      [
        "ON",
        -3059.0
      ],
      [
        "▁ke",
        -3060.0
      ],
      [
        "▁sổ",
        -3061.0
      ],
      [
        "▁Nhu",
        -3062.0
      ],
      [
        "ăc",
        -3063.0
      ],
      [
        "ẵng",
        -3064.0
      ],
      [
        "▁ga",
        -3065.0
      ],
      [
        "▁Xong",
        -3066.0
      ],
      [
        "▁RMIT",
        -3067.0
      ],
      [
        "ti",
        -3068.0
      ],
      [
        "▁Quynh",
        -3069.0
      ],
      [
        "▁Tóc",
        -3070.0
      ],
      [
        "▁view",
        -3071.0
      ],
      [
        "▁nướng",
        -3072.0
      ],
      [
        "▁Đường",
        -3073.0
      ],
      [
        "▁hic",
        -3074.0
      ],
      [
        "▁Họ",
        -3075.0
      ],
      [
        "▁Phi",
        -3076.0
      ],
      [
        "go",
        -3077.0
      ],
      [
        "▁bếp",
        -3078.0
      ],
      [
        "gh",
        -3079.0
      ],
      [
        "▁Kiểu",
        -3080.0
      ],
      [
        "👌👌👌👌",
        -3081.0
      ],
      [
        "▁phím",
        -3082.0
      ],
      [
        "▁hah",
        -3083.0
      ],
      [
        "▁gương",
        -3084.0
      ],
      [
        "ith",
        -3085.0
      ],
      [
        "Nh",
        -3086.0
      ],
      [
        "▁Nhanh",
        -3087.0
      ],
      [
        "pt",
        -3088.0
      ],
      [
        "▁don",
        -3089.0
      ],
      [
        "▁iphone",
        -3090.0
      ],
      [
        "▁sờ",
        -3091.0
      ],
      [
        "▁bnh",
        -3092.0
      ],
      [
        "▁Dang",
        -3093.0
      ],
      [
        "▁keo",
        -3094.0
      ],
      [
        "ml",
        -3095.0
      ],
      [
        "▁lầm",
        -3096.0
      ],
      [
        "▁mik",
        -3097.0
      ],
      [
        "▁Hậu",
        -3098.0
      ],
      [
        "▁75",
        -3099.0
      ],
      [
        "▁Dân",
        -3100.0
      ],
      [
        "▁bờ",
        -3101.0
      ],
      [
        "▁12",
        -3102.0
      ],
      [
        "do",
        -3103.0
      ],
      [
        "▁🤭",
        -3104.0
      ],
      [
        "pl",
        -3105.0
      ],
      [
        "▁wifi",
        -3106.0
      ],
      [
        "▁cú",
        -3107.0
      ],
      [
        "▁Bị",
        -3108.0
      ],
      [
        "▁out",
        -3109.0
      ],
      [
        "▁hack",
        -3110.0
      ],
      [
        "kf",
        -3111.0
      ],
      [
        "tube",
        -3112.0
      ],
      [
        "♥️♥️",
        -3113.0
      ],
      [
        "▁đâm",
        -3114.0
      ],
      [
        "dddd",
        -3115.0
      ],
      [
        "▁Thực",
        -3116.0
      ],
      [
        "▁gio",
        -3117.0
      ],
      [
        "47",
        -3118.0
      ],
      [
        "▁No",
        -3119.0
      ],
      [
        "▁Tí",
        -3120.0
      ],
      [
        "AI",
        -3121.0
      ],
      [
        "AY",
        -3122.0
      ],
      [
        "----",
        -3123.0
      ],
      [
        "▁Si",
        -3124.0
      ],
      [
        "▁tổn",
        -3125.0
      ],
      [
        "▁tĩnh",
        -3126.0
      ],
      [
        "▁ốm",
        -3127.0
      ],
      [
        "▁sim",
        -3128.0
      ],
      [
        "▁rượu",
        -3129.0
      ],
      [
        "85",
        -3130.0
      ],
      [
        "▁mù",
        -3131.0
      ],
      [
        "▁xl",
        -3132.0
      ],
      [
        "▁chời",
        -3133.0
      ],
      [
        "▁đơ",
        -3134.0
      ],
      [
        "▁comm",
        -3135.0
      ],
      [
        "ndnd",
        -3136.0
      ],
      [
        "▁5%",
        -3137.0
      ],
      [
        "▁hòa",
        -3138.0
      ],
      [
        "▁Ngu",
        -3139.0
      ],
      [
        "▁ham",
        -3140.0
      ],
      [
        "👍🏻👍🏻",
        -3141.0
      ],
      [
        "▁km",
        -3142.0
      ],
      [
        "▁zậy",
        -3143.0
      ],
      [
        "▁thây",
        -3144.0
      ],
      [
        "▁Vô",
        -3145.0
      ],
      [
        "▁Đặt",
        -3146.0
      ],
      [
        "ama",
        -3147.0
      ],
      [
        "▁nhể",
        -3148.0
      ],
      [
        "/1",
        -3149.0
      ],
      [
        "▁phat",
        -3150.0
      ],
      [
        "▁bốc",
        -3151.0
      ],
      [
        "▁vơi",
        -3152.0
      ],
      [
        "▁nhẫn",
        -3153.0
      ],
      [
        "CH",
        -3154.0
      ],
      [
        "▁treo",
        -3155.0
      ],
      [
        "▁dt",
        -3156.0
      ],
      [
        "gle",
        -3157.0
      ],
      [
        "▁Nghi",
        -3158.0
      ],
      [
        "▁chui",
        -3159.0
      ],
      [
        "▁Yên",
        -3160.0
      ],
      [
        "▁xóa",
        -3161.0
      ],
      [
        "▁vết",
        -3162.0
      ],
      [
        "😌😌",
        -3163.0
      ],
      [
        "ne",
        -3164.0
      ],
      [
        "▁😍😍😍",
        -3165.0
      ],
      [
        "▁sắm",
        -3166.0
      ],
      [
        "▁off",
        -3167.0
      ],
      [
        "▁Thứ",
        -3168.0
      ],
      [
        "▁chư",
        -3169.0
      ],
      [
        "▁vê",
        -3170.0
      ],
      [
        "po",
        -3171.0
      ],
      [
        "▁ung",
        -3172.0
      ],
      [
        "▁😥",
        -3173.0
      ],
      [
        "▁lọc",
        -3174.0
      ],
      [
        "▁Son",
        -3175.0
      ],
      [
        "▁Ố",
        -3176.0
      ],
      [
        "▁Cơ",
        -3177.0
      ],
      [
        "▁Đánh",
        -3178.0
      ],
      [
        "▁Tư",
        -3179.0
      ],
      [
        "95",
        -3180.0
      ],
      [
        "▁tùy",
        -3181.0
      ],
      [
        "▁cổng",
        -3182.0
      ],
      [
        "▁Chung",
        -3183.0
      ],
      [
        "▁giây",
        -3184.0
      ],
      [
        "km",
        -3185.0
      ],
      [
        "▁Chốt",
        -3186.0
      ],
      [
        "▁Haha",
        -3187.0
      ],
      [
        "iêt",
        -3188.0
      ],
      [
        "▁Tường",
        -3189.0
      ],
      [
        "▁4.",
        -3190.0
      ],
      [
        "▁bơi",
        -3191.0
      ],
      [
        "▁Bữa",
        -3192.0
      ],
      [
        "▁bút",
        -3193.0
      ],
      [
        "▁trùng",
        -3194.0
      ],
      [
        "▁ức",
        -3195.0
      ],
      [
        "▁trượt",
        -3196.0
      ],
      [
        "▁hối",
        -3197.0
      ],
      [
        "▁rách",
        -3198.0
      ],
      [
        "▁You",
        -3199.0
      ],
      [
        "▁đích",
        -3200.0
      ],
      [
        "▁chạm",
        -3201.0
      ],
      [
        "▁ưi",
        -3202.0
      ],
      [
        "ES",
        -3203.0
      ],
      [
        "▁Đáp",
        -3204.0
      ],
      [
        "▁ẩn",
        -3205.0
      ],
      [
        "▁rừng",
        -3206.0
      ],
      [
        "▁nãy",
        -3207.0
      ],
      [
        "▁tụt",
        -3208.0
      ],
      [
        "▁ngộ",
        -3209.0
      ],
      [
        "▁rụng",
        -3210.0
      ],
      [
        "▁Gòn",
        -3211.0
      ],
      [
        "ix",
        -3212.0
      ],
      [
        "▁50",
        -3213.0
      ],
      [
        "▁củng",
        -3214.0
      ],
      [
        "▁Id",
        -3215.0
      ],
      [
        "▁♥",
        -3216.0
      ],
      [
        "▁30",
        -3217.0
      ],
      [
        "kkk",
        -3218.0
      ],
      [
        "ụy",
        -3219.0
      ],
      [
        "▁hứa",
        -3220.0
      ],
      [
        "▁tân",
        -3221.0
      ],
      [
        "io",
        -3222.0
      ],
      [
        "▁tường",
        -3223.0
      ],
      [
        "=)))",
        -3224.0
      ],
      [
        "▁Phượng",
        -3225.0
      ],
      [
        "▁óc",
        -3226.0
      ],
      [
        "▁thuận",
        -3227.0
      ],
      [
        "▁Đầu",
        -3228.0
      ],
      [
        "▁Hát",
        -3229.0
      ],
      [
        "▁Nước",
        -3230.0
      ],
      [
        "▁lọ",
        -3231.0
      ],
      [
        "▁❤❤",
        -3232.0
      ],
      [
        "▁🥰🥰",
        -3233.0
      ],
      [
        "▁Buồn",
        -3234.0
      ],
      [
        "kx",
        -3235.0
      ],
      [
        "▁zui",
        -3236.0
      ],
      [
        "ala",
        -3237.0
      ],
      [
        "▁dong",
        -3238.0
      ],
      [
        "▁Bui",
        -3239.0
      ],
      [
        "▁gỗ",
        -3240.0
      ],
      [
        "ts",
        -3241.0
      ],
      [
        "▁Than",
        -3242.0
      ],
      [
        "ake",
        -3243.0
      ],
      [
        "▁Nguyệt",
        -3244.0
      ],
      [
        "eeeeeeee",
        -3245.0
      ],
      [
        "▁vất",
        -3246.0
      ],
      [
        "sao",
        -3247.0
      ],
      [
        "▁chăn",
        -3248.0
      ],
      [
        "▁phú",
        -3249.0
      ],
      [
        "ka",
        -3250.0
      ],
      [
        "ằn",
        -3251.0
      ],
      [
        "▁App",
        -3252.0
      ],
      [
        "▁Game",
        -3253.0
      ],
      [
        "▁san",
        -3254.0
      ],
      [
        "💕💕",
        -3255.0
      ],
      [
        "▁Huong",
        -3256.0
      ],
      [
        "▁phấn",
        -3257.0
      ],
      [
        "▁lung",
        -3258.0
      ],
      [
        "▁cơn",
        -3259.0
      ],
      [
        "▁khung",
        -3260.0
      ],
      [
        "ẫy",
        -3261.0
      ],
      [
        "▁bó",
        -3262.0
      ],
      [
        "▁xế",
        -3263.0
      ],
      [
        "▁kê",
        -3264.0
      ],
      [
        "▁rời",
        -3265.0
      ],
      [
        "▁đệ",
        -3266.0
      ],
      [
        "▁đáo",
        -3267.0
      ],
      [
        "▁vâng",
        -3268.0
      ],
      [
        "▁viet",
        -3269.0
      ],
      [
        "▁lối",
        -3270.0
      ],
      [
        "▁Ae",
        -3271.0
      ],
      [
        "▁chan",
        -3272.0
      ],
      [
        "▁Mô",
        -3273.0
      ],
      [
        "▁thắc",
        -3274.0
      ],
      [
        "▁xò",
        -3275.0
      ],
      [
        "TV",
        -3276.0
      ],
      [
        "▁tro",
        -3277.0
      ],
      [
        "▁,5",
        -3278.0
      ],
      [
        "▁trao",
        -3279.0
      ],
      [
        "▁huyền",
        -3280.0
      ],
      [
        "ade",
        -3281.0
      ],
      [
        "nam",
        -3282.0
      ],
      [
        "uuu",
        -3283.0
      ],
      [
        "▁Phùng",
        -3284.0
      ],
      [
        "▁dồi",
        -3285.0
      ],
      [
        "▁Tuan",
        -3286.0
      ],
      [
        "▁Re",
        -3287.0
      ],
      [
        "▁cốc",
        -3288.0
      ],
      [
        "▁Com",
        -3289.0
      ],
      [
        "▁Kết",
        -3290.0
      ],
      [
        ".-",
        -3291.0
      ],
      [
        "▁nộp",
        -3292.0
      ],
      [
        "jg",
        -3293.0
      ],
      [
        "▁this",
        -3294.0
      ],
      [
        "▁Thông",
        -3295.0
      ],
      [
        "▁Gọi",
        -3296.0
      ],
      [
        "▁Nha",
        -3297.0
      ],
      [
        "▁gội",
        -3298.0
      ],
      [
        "▁De",
        -3299.0
      ],
      [
        "▁Cuối",
        -3300.0
      ],
      [
        "▁đằng",
        -3301.0
      ],
      [
        "▁móc",
        -3302.0
      ],
      [
        "▁😗",
        -3303.0
      ],
      [
        "▁cử",
        -3304.0
      ],
      [
        "▁TQ",
        -3305.0
      ],
      [
        "▁nhin",
        -3306.0
      ],
      [
        "▁😎",
        -3307.0
      ],
      [
        "▁Nghĩa",
        -3308.0
      ],
      [
        "▁zô",
        -3309.0
      ],
      [
        "▁nghìn",
        -3310.0
      ],
      [
        "▁giai",
        -3311.0
      ],
      [
        "ờng",
        -3312.0
      ],
      [
        "▁🤦",
        -3313.0
      ],
      [
        "▁vang",
        -3314.0
      ],
      [
        "▁Vo",
        -3315.0
      ],
      [
        "▁xi",
        -3316.0
      ],
      [
        "▁😉",
        -3317.0
      ],
      [
        "▁Đôi",
        -3318.0
      ],
      [
        "ăt",
        -3319.0
      ],
      [
        "▁buộc",
        -3320.0
      ],
      [
        "▁sdt",
        -3321.0
      ],
      [
        "uto",
        -3322.0
      ],
      [
        "▁8.",
        -3323.0
      ],
      [
        "▁Tấn",
        -3324.0
      ],
      [
        "▁loạn",
        -3325.0
      ],
      [
        "▁gáy",
        -3326.0
      ],
      [
        "▁tồn",
        -3327.0
      ],
      [
        "Anh",
        -3328.0
      ],
      [
        "▁đốt",
        -3329.0
      ],
      [
        "33",
        -3330.0
      ],
      [
        "▁móp",
        -3331.0
      ],
      [
        "▁khánh",
        -3332.0
      ],
      [
        "ksks",
        -3333.0
      ],
      [
        "vn",
        -3334.0
      ],
      [
        "▁tiệm",
        -3335.0
      ],
      [
        "▁soi",
        -3336.0
      ],
      [
        "▁nhục",
        -3337.0
      ],
      [
        "▁Đc",
        -3338.0
      ],
      [
        "▁hận",
        -3339.0
      ],
      [
        "▁giấc",
        -3340.0
      ],
      [
        "▁Me",
        -3341.0
      ],
      [
        "▁giường",
        -3342.0
      ],
      [
        "▁kiên",
        -3343.0
      ],
      [
        "▁ké",
        -3344.0
      ],
      [
        "▁5.",
        -3345.0
      ],
      [
        "▁Hòa",
        -3346.0
      ],
      [
        "▁Thịnh",
        -3347.0
      ],
      [
        "▁phiền",
        -3348.0
      ],
      [
        "▁bóc",
        -3349.0
      ],
      [
        "▁giãn",
        -3350.0
      ],
      [
        "▁sv",
        -3351.0
      ],
      [
        "▁Kem",
        -3352.0
      ],
      [
        "▁aP",
        -3353.0
      ],
      [
        "▁há",
        -3354.0
      ],
      [
        "▁ac",
        -3355.0
      ],
      [
        "▁banh",
        -3356.0
      ],
      [
        "▁xương",
        -3357.0
      ],
      [
        "▁Vui",
        -3358.0
      ],
      [
        "▁🥴",
        -3359.0
      ],
      [
        "▁mông",
        -3360.0
      ],
      [
        "▁He",
        -3361.0
      ],
      [
        "▁qa",
        -3362.0
      ],
      [
        "bank",
        -3363.0
      ],
      [
        "▁xạo",
        -3364.0
      ],
      [
        "▁sen",
        -3365.0
      ],
      [
        "▁toang",
        -3366.0
      ],
      [
        "▁Quý",
        -3367.0
      ],
      [
        "tok",
        -3368.0
      ],
      [
        "▁súng",
        -3369.0
      ],
      [
        "▁Tin",
        -3370.0
      ],
      [
        ":))))",
        -3371.0
      ],
      [
        "▁Tập",
        -3372.0
      ],
      [
        "🙂🙂",
        -3373.0
      ],
      [
        "▁mỏ",
        -3374.0
      ],
      [
        "▁chàng",
        -3375.0
      ],
      [
        "▁Tho",
        -3376.0
      ],
      [
        "▁Điều",
        -3377.0
      ],
      [
        "qua",
        -3378.0
      ],
      [
        "▁Cuộc",
        -3379.0
      ],
      [
        "▁Chẳng",
        -3380.0
      ],
      [
        "▁Ngon",
        -3381.0
      ],
      [
        "▁lửa",
        -3382.0
      ],
      [
        "▁xịt",
        -3383.0
      ],
      [
        "sa",
        -3384.0
      ],
      [
        "▁Ar",
        -3385.0
      ],
      [
        "▁en",
        -3386.0
      ],
      [
        "zada",
        -3387.0
      ],
      [
        "ir",
        -3388.0
      ],
      [
        "▁xàm",
        -3389.0
      ],
      [
        "▁làn",
        -3390.0
      ],
      [
        "▁thúc",
        -3391.0
      ],
      [
        "▁mv",
        -3392.0
      ],
      [
        "▁😆😆",
        -3393.0
      ],
      [
        "▁bang",
        -3394.0
      ],
      [
        "▁combo",
        -3395.0
      ],
      [
        "▁bá",
        -3396.0
      ],
      [
        "▁đinh",
        -3397.0
      ],
      [
        "▁sỉ",
        -3398.0
      ],
      [
        "▁hùng",
        -3399.0
      ],
      [
        "AT",
        -3400.0
      ],
      [
        "▁St",
        -3401.0
      ],
      [
        "▁nguyễn",
        -3402.0
      ],
      [
        "mình",
        -3403.0
      ],
      [
        "▁Địa",
        -3404.0
      ],
      [
        "▁Lee",
        -3405.0
      ],
      [
        "▁Lệ",
        -3406.0
      ],
      [
        "▁Khang",
        -3407.0
      ],
      [
        "▁xách",
        -3408.0
      ],
      [
        "▁lệch",
        -3409.0
      ],
      [
        "▁Mar",
        -3410.0
      ],
      [
        "ere",
        -3411.0
      ],
      [
        "comment",
        -3412.0
      ],
      [
        "dit",
        -3413.0
      ],
      [
        "▁thớt",
        -3414.0
      ],
      [
        "cl",
        -3415.0
      ],
      [
        "▁Chia",
        -3416.0
      ],
      [
        "▁go",
        -3417.0
      ],
      [
        "▁lão",
        -3418.0
      ],
      [
        "▁Vin",
        -3419.0
      ],
      [
        "▁hốt",
        -3420.0
      ],
      [
        "▁kịch",
        -3421.0
      ],
      [
        "▁bth",
        -3422.0
      ],
      [
        "▁Hiệp",
        -3423.0
      ],
      [
        "▁vong",
        -3424.0
      ],
      [
        "ỗng",
        -3425.0
      ],
      [
        "oogle",
        -3426.0
      ],
      [
        "▁96",
        -3427.0
      ],
      [
        "▁ml",
        -3428.0
      ],
      [
        "nf",
        -3429.0
      ],
      [
        "▁MU",
        -3430.0
      ],
      [
        "▁chối",
        -3431.0
      ],
      [
        "▁Sai",
        -3432.0
      ],
      [
        "▁thẩm",
        -3433.0
      ],
      [
        "▁thà",
        -3434.0
      ],
      [
        "▁Ck",
        -3435.0
      ],
      [
        "WV",
        -3436.0
      ],
      [
        "▁Pin",
        -3437.0
      ],
      [
        "▁ninh",
        -3438.0
      ],
      [
        "Nguyễn",
        -3439.0
      ],
      [
        "▁🐧",
        -3440.0
      ],
      [
        "▁CA",
        -3441.0
      ],
      [
        "▁lợn",
        -3442.0
      ],
      [
        "ườn",
        -3443.0
      ],
      [
        "▁ồn",
        -3444.0
      ],
      [
        "▁Định",
        -3445.0
      ],
      [
        "▁buôn",
        -3446.0
      ],
      [
        "▁Min",
        -3447.0
      ],
      [
        "▁hinh",
        -3448.0
      ],
      [
        "▁Bỏ",
        -3449.0
      ],
      [
        "Xz",
        -3450.0
      ],
      [
        "▁Đo",
        -3451.0
      ],
      [
        "Doy",
        -3452.0
      ],
      [
        "WVud",
        -3453.0
      ],
      [
        "▁tật",
        -3454.0
      ],
      [
        "tbWVud",
        -3455.0
      ],
      [
        "tbWVudDoy",
        -3456.0
      ],
      [
        "jw",
        -3457.0
      ],
      [
        "ầ",
        -3458.0
      ],
      [
        "▁Hạ",
        -3459.0
      ],
      [
        "▁dat",
        -3460.0
      ],
      [
        "hf",
        -3461.0
      ],
      [
        "▁nhịn",
        -3462.0
      ],
      [
        "▁cứt",
        -3463.0
      ],
      [
        "▁Cách",
        -3464.0
      ],
      [
        "ice",
        -3465.0
      ],
      [
        "▁gãy",
        -3466.0
      ],
      [
        "▁win",
        -3467.0
      ],
      [
        "▁phóng",
        -3468.0
      ],
      [
        "▁vứt",
        -3469.0
      ],
      [
        "▁ơiii",
        -3470.0
      ],
      [
        "▁Phước",
        -3471.0
      ],
      [
        "▁mồ",
        -3472.0
      ],
      [
        "▁nhường",
        -3473.0
      ],
      [
        "▁cường",
        -3474.0
      ],
      [
        "▁Bán",
        -3475.0
      ],
      [
        "▁phu",
        -3476.0
      ],
      [
        ":((",
        -3477.0
      ],
      [
        "▁gd",
        -3478.0
      ],
      [
        "▁Chuc",
        -3479.0
      ],
      [
        "▁😆😆😆",
        -3480.0
      ],
      [
        "▁comment",
        -3481.0
      ],
      [
        "ight",
        -3482.0
      ],
      [
        "▁kẹo",
        -3483.0
      ],
      [
        "▁Al",
        -3484.0
      ],
      [
        "▁quỷ",
        -3485.0
      ],
      [
        "iiiii",
        -3486.0
      ],
      [
        "▁ex",
        -3487.0
      ],
      [
        "▁thượng",
        -3488.0
      ],
      [
        "▁Thiện",
        -3489.0
      ],
      [
        "▁vội",
        -3490.0
      ],
      [
        "▁Hộp",
        -3491.0
      ],
      [
        "👏👏",
        -3492.0
      ],
      [
        "▁clone",
        -3493.0
      ],
      [
        "▁Thuý",
        -3494.0
      ],
      [
        "▁web",
        -3495.0
      ],
      [
        "▁nắp",
        -3496.0
      ],
      [
        "▁Ui",
        -3497.0
      ],
      [
        "▁dịu",
        -3498.0
      ],
      [
        "▁Đợi",
        -3499.0
      ],
      [
        "▁giám",
        -3500.0
      ],
      [
        "▁Gặp",
        -3501.0
      ],
      [
        "▁Kiên",
        -3502.0
      ],
      [
        "▁bon",
        -3503.0
      ],
      [
        "da",
        -3504.0
      ],
      [
        "▁Pháp",
        -3505.0
      ],
      [
        "▁phường",
        -3506.0
      ],
      [
        "▁👉",
        -3507.0
      ],
      [
        "ana",
        -3508.0
      ],
      [
        "▁Fr",
        -3509.0
      ],
      [
        "▁time",
        -3510.0
      ],
      [
        "▁ốc",
        -3511.0
      ],
      [
        "▁Đấy",
        -3512.0
      ],
      [
        "▁mò",
        -3513.0
      ],
      [
        "▁bào",
        -3514.0
      ],
      [
        "▁tang",
        -3515.0
      ],
      [
        "▁giùm",
        -3516.0
      ],
      [
        "▁dí",
        -3517.0
      ],
      [
        "▁họa",
        -3518.0
      ],
      [
        "MT",
        -3519.0
      ],
      [
        "▁chuc",
        -3520.0
      ],
      [
        "▁ống",
        -3521.0
      ],
      [
        "▁tg",
        -3522.0
      ],
      [
        "ha",
        -3523.0
      ],
      [
        "▁sàn",
        -3524.0
      ],
      [
        "▁ye",
        -3525.0
      ],
      [
        "▁Mn",
        -3526.0
      ],
      [
        "ye",
        -3527.0
      ],
      [
        "kw",
        -3528.0
      ],
      [
        "▁chiên",
        -3529.0
      ],
      [
        "▁gồm",
        -3530.0
      ],
      [
        "▁:((((",
        -3531.0
      ],
      [
        "▁mọc",
        -3532.0
      ],
      [
        "▁Ngoài",
        -3533.0
      ],
      [
        "▁tráng",
        -3534.0
      ],
      [
        "▁🤣🤣🤣🤣",
        -3535.0
      ],
      [
        "▁Nhất",
        -3536.0
      ],
      [
        "▁note",
        -3537.0
      ],
      [
        "▁núi",
        -3538.0
      ],
      [
        "▁cột",
        -3539.0
      ],
      [
        ",5",
        -3540.0
      ],
      [
        "▁Mất",
        -3541.0
      ],
      [
        "😢😢",
        -3542.0
      ],
      [
        "▁cáp",
        -3543.0
      ],
      [
        "❤️❤️❤️❤️❤️❤️❤️❤️",
        -3544.0
      ],
      [
        "▁trọn",
        -3545.0
      ],
      [
        "👍👍👍👍👍👍👍👍",
        -3546.0
      ],
      [
        "▁đai",
        -3547.0
      ],
      [
        "▁thg",
        -3548.0
      ],
      [
        "▁hem",
        -3549.0
      ],
      [
        "▁tông",
        -3550.0
      ],
      [
        "▁Bọn",
        -3551.0
      ],
      [
        "̣t",
        -3552.0
      ],
      [
        "▁ngừ",
        -3553.0
      ],
      [
        "▁BI",
        -3554.0
      ],
      [
        "▁max",
        -3555.0
      ],
      [
        "▁quạt",
        -3556.0
      ],
      [
        "str",
        -3557.0
      ],
      [
        "▁Truong",
        -3558.0
      ],
      [
        "▁bể",
        -3559.0
      ],
      [
        "▁khoi",
        -3560.0
      ],
      [
        "uuuuuuuu",
        -3561.0
      ],
      [
        "▁Li",
        -3562.0
      ],
      [
        "ona",
        -3563.0
      ],
      [
        "▁hên",
        -3564.0
      ],
      [
        "▁sàng",
        -3565.0
      ],
      [
        "▁Chân",
        -3566.0
      ],
      [
        "▁điệu",
        -3567.0
      ],
      [
        "▁lòi",
        -3568.0
      ],
      [
        "▁nhen",
        -3569.0
      ],
      [
        "cccc",
        -3570.0
      ],
      [
        "▁covid",
        -3571.0
      ],
      [
        "jjjj",
        -3572.0
      ],
      [
        "▁thoáng",
        -3573.0
      ],
      [
        "▁kín",
        -3574.0
      ],
      [
        "▁Bl",
        -3575.0
      ],
      [
        "▁dại",
        -3576.0
      ],
      [
        "▁quái",
        -3577.0
      ],
      [
        "ca",
        -3578.0
      ],
      [
        "▁thoảng",
        -3579.0
      ],
      [
        "▁lăn",
        -3580.0
      ],
      [
        "▁nge",
        -3581.0
      ],
      [
        "▁Tinh",
        -3582.0
      ],
      [
        "nsns",
        -3583.0
      ],
      [
        "▁Ấ",
        -3584.0
      ],
      [
        "▁hò",
        -3585.0
      ],
      [
        "▁thuế",
        -3586.0
      ],
      [
        "▁tràn",
        -3587.0
      ],
      [
        "▁chill",
        -3588.0
      ],
      [
        "▁nx",
        -3589.0
      ],
      [
        "▁hú",
        -3590.0
      ],
      [
        "▁giấu",
        -3591.0
      ],
      [
        "▁Love",
        -3592.0
      ],
      [
        "▁Cười",
        -3593.0
      ],
      [
        "▁thủy",
        -3594.0
      ],
      [
        "▁ri",
        -3595.0
      ],
      [
        "▁ngực",
        -3596.0
      ],
      [
        "eee",
        -3597.0
      ],
      [
        "▁rui",
        -3598.0
      ],
      [
        "▁tre",
        -3599.0
      ],
      [
        "▁khéo",
        -3600.0
      ],
      [
        "▁Chờ",
        -3601.0
      ],
      [
        "▁ráp",
        -3602.0
      ],
      [
        "▁LÀ",
        -3603.0
      ],
      [
        "▁nen",
        -3604.0
      ],
      [
        "▁,,",
        -3605.0
      ],
      [
        "▁Tội",
        -3606.0
      ],
      [
        "▁vay",
        -3607.0
      ],
      [
        "▁biên",
        -3608.0
      ],
      [
        "́c",
        -3609.0
      ],
      [
        "▁Chiến",
        -3610.0
      ],
      [
        "▁mặn",
        -3611.0
      ],
      [
        "▁dien",
        -3612.0
      ],
      [
        "▁phan",
        -3613.0
      ],
      [
        "▁with",
        -3614.0
      ],
      [
        "▁ngập",
        -3615.0
      ],
      [
        "▁phán",
        -3616.0
      ],
      [
        "▁chặn",
        -3617.0
      ],
      [
        "▁Top",
        -3618.0
      ],
      [
        "▁bún",
        -3619.0
      ],
      [
        "ĩu",
        -3620.0
      ],
      [
        "▁hâm",
        -3621.0
      ],
      [
        "▁cặc",
        -3622.0
      ],
      [
        "▁ngoái",
        -3623.0
      ],
      [
        "act",
        -3624.0
      ],
      [
        "▁5*",
        -3625.0
      ],
      [
        "▁ráng",
        -3626.0
      ],
      [
        "ara",
        -3627.0
      ],
      [
        "bf",
        -3628.0
      ],
      [
        "▁bám",
        -3629.0
      ],
      [
        "▁kaka",
        -3630.0
      ],
      [
        "▁Mãi",
        -3631.0
      ],
      [
        "▁cận",
        -3632.0
      ],
      [
        "▁khùng",
        -3633.0
      ],
      [
        "▁giơ",
        -3634.0
      ],
      [
        "🤩🤩",
        -3635.0
      ],
      [
        "ain",
        -3636.0
      ],
      [
        "▁85",
        -3637.0
      ],
      [
        "▁Thanks",
        -3638.0
      ],
      [
        "ẫm",
        -3639.0
      ],
      [
        "▁Nhã",
        -3640.0
      ],
      [
        "▁xui",
        -3641.0
      ],
      [
        "▁tái",
        -3642.0
      ],
      [
        "▁Chán",
        -3643.0
      ],
      [
        "ba",
        -3644.0
      ],
      [
        "▁thik",
        -3645.0
      ],
      [
        "▁ngôi",
        -3646.0
      ],
      [
        "▁men",
        -3647.0
      ],
      [
        "▁nụ",
        -3648.0
      ],
      [
        "▁Giọng",
        -3649.0
      ],
      [
        "▁cỏ",
        -3650.0
      ],
      [
        "▁Trên",
        -3651.0
      ],
      [
        "▁sg",
        -3652.0
      ],
      [
        "▁nông",
        -3653.0
      ],
      [
        "19",
        -3654.0
      ],
      [
        "ỉm",
        -3655.0
      ],
      [
        "▁Gửi",
        -3656.0
      ],
      [
        "ation",
        -3657.0
      ],
      [
        "▁hiến",
        -3658.0
      ],
      [
        "▁tê",
        -3659.0
      ],
      [
        "▁bít",
        -3660.0
      ],
      [
        "▁Cháu",
        -3661.0
      ],
      [
        "▁Hơi",
        -3662.0
      ],
      [
        "▁vote",
        -3663.0
      ],
      [
        "HCM",
        -3664.0
      ],
      [
        "eed",
        -3665.0
      ],
      [
        "▁bơ",
        -3666.0
      ],
      [
        "▁đái",
        -3667.0
      ],
      [
        "▁Thuận",
        -3668.0
      ],
      [
        "▁Điện",
        -3669.0
      ],
      [
        "ug",
        -3670.0
      ],
      [
        "▁Nghĩ",
        -3671.0
      ],
      [
        "▁loi",
        -3672.0
      ],
      [
        "▁rạp",
        -3673.0
      ],
      [
        "▁Tuyền",
        -3674.0
      ],
      [
        "▁hê",
        -3675.0
      ],
      [
        "▁nết",
        -3676.0
      ],
      [
        "▁sừng",
        -3677.0
      ],
      [
        "▁mực",
        -3678.0
      ],
      [
        "▁Bánh",
        -3679.0
      ],
      [
        "ela",
        -3680.0
      ],
      [
        "▁gỡ",
        -3681.0
      ],
      [
        "▁Bây",
        -3682.0
      ],
      [
        "▁🙏",
        -3683.0
      ],
      [
        "lisa",
        -3684.0
      ],
      [
        "▁94",
        -3685.0
      ],
      [
        "▁5-",
        -3686.0
      ],
      [
        "ươn",
        -3687.0
      ],
      [
        "▁Khổ",
        -3688.0
      ],
      [
        "roi",
        -3689.0
      ],
      [
        "11",
        -3690.0
      ],
      [
        "tv",
        -3691.0
      ],
      [
        "▁nám",
        -3692.0
      ],
      [
        "ìa",
        -3693.0
      ],
      [
        "▁zay",
        -3694.0
      ],
      [
        "▁sem",
        -3695.0
      ],
      [
        "▁dồn",
        -3696.0
      ],
      [
        "▁vir",
        -3697.0
      ],
      [
        "▁Bằng",
        -3698.0
      ],
      [
        "▁thách",
        -3699.0
      ],
      [
        "hx",
        -3700.0
      ],
      [
        "▁gui",
        -3701.0
      ],
      [
        "▁Cá",
        -3702.0
      ],
      [
        "▁bịch",
        -3703.0
      ],
      [
        "▁ú",
        -3704.0
      ],
      [
        "mit",
        -3705.0
      ],
      [
        "▁Quảng",
        -3706.0
      ],
      [
        "89",
        -3707.0
      ],
      [
        "▁shopee",
        -3708.0
      ],
      [
        "ooo",
        -3709.0
      ],
      [
        "ốp",
        -3710.0
      ],
      [
        "▁võ",
        -3711.0
      ],
      [
        "ant",
        -3712.0
      ],
      [
        "cho",
        -3713.0
      ],
      [
        "▁duong",
        -3714.0
      ],
      [
        "▁Tam",
        -3715.0
      ],
      [
        "▁xước",
        -3716.0
      ],
      [
        "▁lắc",
        -3717.0
      ],
      [
        "▁body",
        -3718.0
      ],
      [
        "▁real",
        -3719.0
      ],
      [
        "▁dam",
        -3720.0
      ],
      [
        ">>",
        -3721.0
      ],
      [
        "▁cn",
        -3722.0
      ],
      [
        "▁trơn",
        -3723.0
      ],
      [
        "▁cafe",
        -3724.0
      ],
      [
        "ki",
        -3725.0
      ],
      [
        "▁Mèo",
        -3726.0
      ],
      [
        "▁nở",
        -3727.0
      ],
      [
        "▁nhấn",
        -3728.0
      ],
      [
        "▁nick",
        -3729.0
      ],
      [
        "ýt",
        -3730.0
      ],
      [
        "▁ngưỡng",
        -3731.0
      ],
      [
        "😋😋",
        -3732.0
      ],
      [
        "▁cát",
        -3733.0
      ],
      [
        "▁tot",
        -3734.0
      ],
      [
        "▁vốn",
        -3735.0
      ],
      [
        "õm",
        -3736.0
      ],
      [
        "chi",
        -3737.0
      ],
      [
        "▁hãm",
        -3738.0
      ],
      [
        "▁râu",
        -3739.0
      ],
      [
        "22",
        -3740.0
      ],
      [
        "▁youtube",
        -3741.0
      ],
      [
        "▁trinh",
        -3742.0
      ],
      [
        "ện",
        -3743.0
      ],
      [
        "▁Te",
        -3744.0
      ],
      [
        "▁nâu",
        -3745.0
      ],
      [
        "▁facebook",
        -3746.0
      ],
      [
        "ppy",
        -3747.0
      ],
      [
        "▁bong",
        -3748.0
      ],
      [
        "▁hello",
        -3749.0
      ],
      [
        "▁Sắp",
        -3750.0
      ],
      [
        "▁oppo",
        -3751.0
      ],
      [
        "▁Pl",
        -3752.0
      ],
      [
        "▁HCM",
        -3753.0
      ],
      [
        "▁fai",
        -3754.0
      ],
      [
        "▁phối",
        -3755.0
      ],
      [
        "▁samsung",
        -3756.0
      ],
      [
        "▁trọ",
        -3757.0
      ],
      [
        "▁Đề",
        -3758.0
      ],
      [
        "‍♀",
        -3759.0
      ],
      [
        "▁Abe",
        -3760.0
      ],
      [
        "▁điêu",
        -3761.0
      ],
      [
        "yyy",
        -3762.0
      ],
      [
        "▁bôi",
        -3763.0
      ],
      [
        "UY",
        -3764.0
      ],
      [
        "▁họp",
        -3765.0
      ],
      [
        "▁Mang",
        -3766.0
      ],
      [
        "▁Hạt",
        -3767.0
      ],
      [
        "ber",
        -3768.0
      ],
      [
        "▁Triệu",
        -3769.0
      ],
      [
        "▁lê",
        -3770.0
      ],
      [
        "▁chén",
        -3771.0
      ],
      [
        "▁bực",
        -3772.0
      ],
      [
        "▁dinh",
        -3773.0
      ],
      [
        "▁form",
        -3774.0
      ],
      [
        "▁khắp",
        -3775.0
      ],
      [
        "▁Cùng",
        -3776.0
      ],
      [
        "_-",
        -3777.0
      ],
      [
        "▁vẹn",
        -3778.0
      ],
      [
        "▁bro",
        -3779.0
      ],
      [
        "▁Se",
        -3780.0
      ],
      [
        "▁thù",
        -3781.0
      ],
      [
        "▁khac",
        -3782.0
      ],
      [
        "▁ngứa",
        -3783.0
      ],
      [
        "-9",
        -3784.0
      ],
      [
        "▁Nhỏ",
        -3785.0
      ],
      [
        "▁muối",
        -3786.0
      ],
      [
        "🥰🥰🥰🥰🥰🥰🥰🥰",
        -3787.0
      ],
      [
        "▁Hảo",
        -3788.0
      ],
      [
        "▁Mùa",
        -3789.0
      ],
      [
        "▁sủa",
        -3790.0
      ],
      [
        "▁nhuộm",
        -3791.0
      ],
      [
        "▁Khu",
        -3792.0
      ],
      [
        "▁đag",
        -3793.0
      ],
      [
        "▁đồn",
        -3794.0
      ],
      [
        "▁🤪",
        -3795.0
      ],
      [
        "▁ten",
        -3796.0
      ],
      [
        "▁-.-",
        -3797.0
      ],
      [
        "▁bế",
        -3798.0
      ],
      [
        "▁Hihi",
        -3799.0
      ],
      [
        "▁đảng",
        -3800.0
      ],
      [
        "▁vã",
        -3801.0
      ],
      [
        "▁Mailisa",
        -3802.0
      ],
      [
        "▁Hài",
        -3803.0
      ],
      [
        "▁đua",
        -3804.0
      ],
      [
        "▁not",
        -3805.0
      ],
      [
        "hat",
        -3806.0
      ],
      [
        "▁ừ",
        -3807.0
      ],
      [
        "▁Dạo",
        -3808.0
      ],
      [
        "▁Huệ",
        -3809.0
      ],
      [
        "▁hao",
        -3810.0
      ],
      [
        "▁tiktok",
        -3811.0
      ],
      [
        "▁nhặt",
        -3812.0
      ],
      [
        "▁bại",
        -3813.0
      ],
      [
        "▁49",
        -3814.0
      ],
      [
        "▁âu",
        -3815.0
      ],
      [
        "▁gan",
        -3816.0
      ],
      [
        "▁vơ",
        -3817.0
      ],
      [
        "▁bú",
        -3818.0
      ],
      [
        "▁luc",
        -3819.0
      ],
      [
        "▁cương",
        -3820.0
      ],
      [
        "▁:'(",
        -3821.0
      ],
      [
        "▁rung",
        -3822.0
      ],
      [
        "▁🤡",
        -3823.0
      ],
      [
        "‍♀️",
        -3824.0
      ],
      [
        "va",
        -3825.0
      ],
      [
        "▁chém",
        -3826.0
      ],
      [
        "▁túc",
        -3827.0
      ],
      [
        "ite",
        -3828.0
      ],
      [
        "cher",
        -3829.0
      ],
      [
        "ấ",
        -3830.0
      ],
      [
        "▁hanh",
        -3831.0
      ],
      [
        "▁zị",
        -3832.0
      ],
      [
        "▁bj",
        -3833.0
      ],
      [
        "▁Diệp",
        -3834.0
      ],
      [
        "▁đụng",
        -3835.0
      ],
      [
        "▁wor",
        -3836.0
      ],
      [
        "▁Thân",
        -3837.0
      ],
      [
        "▁Âm",
        -3838.0
      ],
      [
        "▁:-",
        -3839.0
      ],
      [
        "▁7.",
        -3840.0
      ],
      [
        "▁né",
        -3841.0
      ],
      [
        "▁_",
        -3842.0
      ],
      [
        "▁Bởi",
        -3843.0
      ],
      [
        "▁bac",
        -3844.0
      ],
      [
        "▁chùa",
        -3845.0
      ],
      [
        "▁nhat",
        -3846.0
      ],
      [
        "▁tấu",
        -3847.0
      ],
      [
        "▁đg",
        -3848.0
      ],
      [
        "▁Kinh",
        -3849.0
      ],
      [
        "▁hop",
        -3850.0
      ],
      [
        "▁Dinh",
        -3851.0
      ],
      [
        "▁nhăn",
        -3852.0
      ],
      [
        "▁dối",
        -3853.0
      ],
      [
        "▁Phòng",
        -3854.0
      ],
      [
        "▁tú",
        -3855.0
      ],
      [
        "▁gòn",
        -3856.0
      ],
      [
        "▁lào",
        -3857.0
      ],
      [
        "▁😝",
        -3858.0
      ],
      [
        "▁đuôi",
        -3859.0
      ],
      [
        "▁nhai",
        -3860.0
      ],
      [
        "▁vớ",
        -3861.0
      ],
      [
        "▁cau",
        -3862.0
      ],
      [
        "▁Huyen",
        -3863.0
      ],
      [
        "▁chao",
        -3864.0
      ],
      [
        "▁bậy",
        -3865.0
      ],
      [
        "💖💖",
        -3866.0
      ],
      [
        "😡😡",
        -3867.0
      ],
      [
        "▁ky",
        -3868.0
      ],
      [
        "▁khuy",
        -3869.0
      ],
      [
        "▁hạng",
        -3870.0
      ],
      [
        "vs",
        -3871.0
      ],
      [
        "▁vch",
        -3872.0
      ],
      [
        "ất",
        -3873.0
      ],
      [
        "ặm",
        -3874.0
      ],
      [
        "▁mẻ",
        -3875.0
      ],
      [
        "▁lazada",
        -3876.0
      ],
      [
        "▁cất",
        -3877.0
      ],
      [
        "okokokok",
        -3878.0
      ],
      [
        "▁vặn",
        -3879.0
      ],
      [
        "▁Tai",
        -3880.0
      ],
      [
        "nnn",
        -3881.0
      ],
      [
        "▁đụ",
        -3882.0
      ],
      [
        "▁😁😁😁",
        -3883.0
      ],
      [
        "▁thước",
        -3884.0
      ],
      [
        "▁Apple",
        -3885.0
      ],
      [
        "▁them",
        -3886.0
      ],
      [
        "▁xăm",
        -3887.0
      ],
      [
        "▁kkkkk",
        -3888.0
      ],
      [
        "▁khối",
        -3889.0
      ],
      [
        "▁nek",
        -3890.0
      ],
      [
        "▁Gr",
        -3891.0
      ],
      [
        "▁nưa",
        -3892.0
      ],
      [
        "▁;))",
        -3893.0
      ],
      [
        "▁8/",
        -3894.0
      ],
      [
        "▁rối",
        -3895.0
      ],
      [
        "▁Đâu",
        -3896.0
      ],
      [
        "▁Tô",
        -3897.0
      ],
      [
        "▁súc",
        -3898.0
      ],
      [
        "▁chật",
        -3899.0
      ],
      [
        "▁AD",
        -3900.0
      ],
      [
        "▁Đa",
        -3901.0
      ],
      [
        "😀😀",
        -3902.0
      ],
      [
        "ust",
        -3903.0
      ],
      [
        "▁kẹt",
        -3904.0
      ],
      [
        "▁Hang",
        -3905.0
      ],
      [
        "▁mak",
        -3906.0
      ],
      [
        "iett",
        -3907.0
      ],
      [
        "mà",
        -3908.0
      ],
      [
        "▁ó",
        -3909.0
      ],
      [
        "▁Chế",
        -3910.0
      ],
      [
        "▁Thuỷ",
        -3911.0
      ],
      [
        "▁đứt",
        -3912.0
      ],
      [
        "▁hít",
        -3913.0
      ],
      [
        "bc",
        -3914.0
      ],
      [
        "oll",
        -3915.0
      ],
      [
        "▁tt",
        -3916.0
      ],
      [
        "▁Khá",
        -3917.0
      ],
      [
        "▁bik",
        -3918.0
      ],
      [
        "▁HD",
        -3919.0
      ],
      [
        "▁vv",
        -3920.0
      ],
      [
        "▁trg",
        -3921.0
      ],
      [
        "▁Nữ",
        -3922.0
      ],
      [
        "▁múa",
        -3923.0
      ],
      [
        "▁Hường",
        -3924.0
      ],
      [
        "▁Am",
        -3925.0
      ],
      [
        "II",
        -3926.0
      ],
      [
        "▁all",
        -3927.0
      ],
      [
        "rl",
        -3928.0
      ],
      [
        "▁Mày",
        -3929.0
      ],
      [
        "▁leo",
        -3930.0
      ],
      [
        "ers",
        -3931.0
      ],
      [
        "chị",
        -3932.0
      ],
      [
        "▁Tay",
        -3933.0
      ],
      [
        "ãnh",
        -3934.0
      ],
      [
        "▁tuỳ",
        -3935.0
      ],
      [
        "▁48",
        -3936.0
      ],
      [
        "▁Dịch",
        -3937.0
      ],
      [
        "̣c",
        -3938.0
      ],
      [
        "😚😚",
        -3939.0
      ],
      [
        "▁Huhu",
        -3940.0
      ],
      [
        "76",
        -3941.0
      ],
      [
        "oup",
        -3942.0
      ],
      [
        "▁thăng",
        -3943.0
      ],
      [
        "giao",
        -3944.0
      ],
      [
        "▁dj",
        -3945.0
      ],
      [
        "▁dth",
        -3946.0
      ],
      [
        "▁auto",
        -3947.0
      ],
      [
        "▁đàng",
        -3948.0
      ],
      [
        "▁Nồi",
        -3949.0
      ],
      [
        "▁tl",
        -3950.0
      ],
      [
        "▁vững",
        -3951.0
      ],
      [
        "by",
        -3952.0
      ],
      [
        "▁Sự",
        -3953.0
      ],
      [
        "▁Vâng",
        -3954.0
      ],
      [
        "▁Mê",
        -3955.0
      ],
      [
        "▁😂😂😂😂",
        -3956.0
      ],
      [
        "▁Vĩnh",
        -3957.0
      ],
      [
        "▁mini",
        -3958.0
      ],
      [
        "▁jo",
        -3959.0
      ],
      [
        "▁Cha",
        -3960.0
      ],
      [
        "▁-_-",
        -3961.0
      ],
      [
        "▁😭😭😭",
        -3962.0
      ],
      [
        "▁tháo",
        -3963.0
      ],
      [
        "▁Trí",
        -3964.0
      ],
      [
        "ựt",
        -3965.0
      ],
      [
        "▁đành",
        -3966.0
      ],
      [
        "▁hâ",
        -3967.0
      ],
      [
        "▁huyết",
        -3968.0
      ],
      [
        "▁Che",
        -3969.0
      ],
      [
        "cs",
        -3970.0
      ],
      [
        "▁your",
        -3971.0
      ],
      [
        "▁Chuyện",
        -3972.0
      ],
      [
        "́i",
        -3973.0
      ],
      [
        "▁CÓ",
        -3974.0
      ],
      [
        "▁chat",
        -3975.0
      ],
      [
        "ty",
        -3976.0
      ],
      [
        "▁Phí",
        -3977.0
      ],
      [
        "=))))",
        -3978.0
      ],
      [
        "▁trồng",
        -3979.0
      ],
      [
        "▁Mở",
        -3980.0
      ],
      [
        "▁Like",
        -3981.0
      ],
      [
        "▁Hoàn",
        -3982.0
      ],
      [
        "▁láo",
        -3983.0
      ],
      [
        "▁Idol",
        -3984.0
      ],
      [
        "jz",
        -3985.0
      ],
      [
        "21",
        -3986.0
      ],
      [
        "▁good",
        -3987.0
      ],
      [
        "emm",
        -3988.0
      ],
      [
        "▁hổng",
        -3989.0
      ],
      [
        "▁lăm",
        -3990.0
      ],
      [
        "▁Chiều",
        -3991.0
      ],
      [
        "▁đền",
        -3992.0
      ],
      [
        "▁bung",
        -3993.0
      ],
      [
        "▁😳",
        -3994.0
      ],
      [
        "▁inb",
        -3995.0
      ],
      [
        "▁lồng",
        -3996.0
      ],
      [
        "ssss",
        -3997.0
      ],
      [
        "▁mến",
        -3998.0
      ],
      [
        "▁58",
        -3999.0
      ],
      [
        "▁tuyến",
        -4000.0
      ],
      [
        "▁Ổ",
        -4001.0
      ],
      [
        "▁vương",
        -4002.0
      ],
      [
        "▁NAM",
        -4003.0
      ],
      [
        "▁thậm",
        -4004.0
      ],
      [
        "▁Đan",
        -4005.0
      ],
      [
        "▁nghiên",
        -4006.0
      ],
      [
        "▁6.",
        -4007.0
      ],
      [
        "▁gõ",
        -4008.0
      ],
      [
        "▁Chương",
        -4009.0
      ],
      [
        "PT",
        -4010.0
      ],
      [
        "▁ben",
        -4011.0
      ],
      [
        "▁trương",
        -4012.0
      ],
      [
        "▁khứ",
        -4013.0
      ],
      [
        "▁Bin",
        -4014.0
      ],
      [
        "▁Thơ",
        -4015.0
      ],
      [
        "ÂN",
        -4016.0
      ],
      [
        "▁Kỳ",
        -4017.0
      ],
      [
        "▁khốn",
        -4018.0
      ],
      [
        "ỜI",
        -4019.0
      ],
      [
        "▁tau",
        -4020.0
      ],
      [
        "▁69",
        -4021.0
      ],
      [
        "▁tủi",
        -4022.0
      ],
      [
        "▁nang",
        -4023.0
      ],
      [
        "▁Thêm",
        -4024.0
      ],
      [
        "▁at",
        -4025.0
      ],
      [
        "▁64",
        -4026.0
      ],
      [
        "▁gòi",
        -4027.0
      ],
      [
        "▁thô",
        -4028.0
      ],
      [
        "▁nấy",
        -4029.0
      ],
      [
        "IN",
        -4030.0
      ],
      [
        "▁bự",
        -4031.0
      ],
      [
        "-8",
        -4032.0
      ],
      [
        "▁huỷ",
        -4033.0
      ],
      [
        "▁vĩnh",
        -4034.0
      ],
      [
        "▁<3",
        -4035.0
      ],
      [
        "▁😁😁",
        -4036.0
      ],
      [
        "▁xám",
        -4037.0
      ],
      [
        "▁ướt",
        -4038.0
      ],
      [
        "▁bóp",
        -4039.0
      ],
      [
        "▁sốc",
        -4040.0
      ],
      [
        "▁cọc",
        -4041.0
      ],
      [
        "!!!!!!!!",
        -4042.0
      ],
      [
        "ajaj",
        -4043.0
      ],
      [
        "INH",
        -4044.0
      ],
      [
        "▁Tạ",
        -4045.0
      ],
      [
        "▁xót",
        -4046.0
      ],
      [
        "▁lò",
        -4047.0
      ],
      [
        "▁riết",
        -4048.0
      ],
      [
        "▁hầu",
        -4049.0
      ],
      [
        "▁sói",
        -4050.0
      ],
      [
        "▁hnay",
        -4051.0
      ],
      [
        "▁vịt",
        -4052.0
      ],
      [
        "▁TT",
        -4053.0
      ],
      [
        "▁thờ",
        -4054.0
      ],
      [
        "▁soát",
        -4055.0
      ],
      [
        "▁Yen",
        -4056.0
      ],
[...]
